{
  "version": "1.0",
  "truncation": null,
  "padding": null,
  "added_tokens": [
    {
      "id": 0,
      "content": "[PAD]",
      "single_word": false,
      "lstrip": false,
      "rstrip": false,
      "normalized": false,
      "special": true
    },
    {
      "id": 1,
      "content": "[UNK]",
      "single_word": false,
      "lstrip": false,
      "rstrip": false,
      "normalized": false,
      "special": true
    },
    {
      "id": 2,
      "content": "[BOS]",
      "single_word": false,
      "lstrip": false,
      "rstrip": false,
      "normalized": false,
      "special": true
    },
    {
      "id": 3,
      "content": "[EOS]",
      "single_word": false,
      "lstrip": false,
      "rstrip": false,
      "normalized": false,
      "special": true
    }
  ],
  "normalizer": null,
  "pre_tokenizer": {
    "type": "ByteLevel",
    "add_prefix_space": true,
    "trim_offsets": true,
    "use_regex": true
  },
  "post_processor": null,
  "decoder": {
    "type": "ByteLevel",
    "add_prefix_space": true,
    "trim_offsets": true,
    "use_regex": true
  },
  "model": {
    "type": "BPE",
    "dropout": null,
    "unk_token": "[UNK]",
    "continuing_subword_prefix": null,
    "end_of_word_suffix": null,
    "fuse_unk": false,
    "byte_fallback": false,
    "ignore_merges": false,
    "vocab": {
      "[PAD]": 0,
      "[UNK]": 1,
      "[BOS]": 2,
      "[EOS]": 3,
      "!": 4,
      "\"": 5,
      "#": 6,
      "$": 7,
      "%": 8,
      "&": 9,
      "'": 10,
      "(": 11,
      ")": 12,
      "*": 13,
      "+": 14,
      ",": 15,
      "-": 16,
      ".": 17,
      "/": 18,
      "0": 19,
      "1": 20,
      "2": 21,
      "3": 22,
      "4": 23,
      "5": 24,
      "6": 25,
      "7": 26,
      "8": 27,
      "9": 28,
      ":": 29,
      ";": 30,
      "<": 31,
      "=": 32,
      ">": 33,
      "?": 34,
      "@": 35,
      "A": 36,
      "B": 37,
      "C": 38,
      "D": 39,
      "E": 40,
      "F": 41,
      "G": 42,
      "H": 43,
      "I": 44,
      "J": 45,
      "K": 46,
      "L": 47,
      "M": 48,
      "N": 49,
      "O": 50,
      "P": 51,
      "Q": 52,
      "R": 53,
      "S": 54,
      "T": 55,
      "U": 56,
      "V": 57,
      "W": 58,
      "X": 59,
      "Y": 60,
      "Z": 61,
      "[": 62,
      "\\": 63,
      "]": 64,
      "^": 65,
      "_": 66,
      "`": 67,
      "a": 68,
      "b": 69,
      "c": 70,
      "d": 71,
      "e": 72,
      "f": 73,
      "g": 74,
      "h": 75,
      "i": 76,
      "j": 77,
      "k": 78,
      "l": 79,
      "m": 80,
      "n": 81,
      "o": 82,
      "p": 83,
      "q": 84,
      "r": 85,
      "s": 86,
      "t": 87,
      "u": 88,
      "v": 89,
      "w": 90,
      "x": 91,
      "y": 92,
      "z": 93,
      "{": 94,
      "|": 95,
      "}": 96,
      "~": 97,
      "¡": 98,
      "¢": 99,
      "£": 100,
      "¤": 101,
      "¥": 102,
      "¦": 103,
      "§": 104,
      "¨": 105,
      "©": 106,
      "ª": 107,
      "«": 108,
      "¬": 109,
      "®": 110,
      "¯": 111,
      "°": 112,
      "±": 113,
      "²": 114,
      "³": 115,
      "´": 116,
      "µ": 117,
      "¶": 118,
      "·": 119,
      "¸": 120,
      "¹": 121,
      "º": 122,
      "»": 123,
      "¼": 124,
      "½": 125,
      "¾": 126,
      "¿": 127,
      "À": 128,
      "Á": 129,
      "Â": 130,
      "Ã": 131,
      "Ä": 132,
      "Å": 133,
      "Æ": 134,
      "Ç": 135,
      "È": 136,
      "É": 137,
      "Ê": 138,
      "Ë": 139,
      "Ì": 140,
      "Í": 141,
      "Î": 142,
      "Ï": 143,
      "Ð": 144,
      "Ñ": 145,
      "Ò": 146,
      "Ó": 147,
      "Ô": 148,
      "Õ": 149,
      "Ö": 150,
      "×": 151,
      "Ø": 152,
      "Ù": 153,
      "Ú": 154,
      "Û": 155,
      "Ü": 156,
      "Ý": 157,
      "Þ": 158,
      "ß": 159,
      "à": 160,
      "á": 161,
      "â": 162,
      "ã": 163,
      "ä": 164,
      "å": 165,
      "æ": 166,
      "ç": 167,
      "è": 168,
      "é": 169,
      "ê": 170,
      "ë": 171,
      "ì": 172,
      "í": 173,
      "î": 174,
      "ï": 175,
      "ð": 176,
      "ñ": 177,
      "ò": 178,
      "ó": 179,
      "ô": 180,
      "õ": 181,
      "ö": 182,
      "÷": 183,
      "ø": 184,
      "ù": 185,
      "ú": 186,
      "û": 187,
      "ü": 188,
      "ý": 189,
      "þ": 190,
      "ÿ": 191,
      "Ā": 192,
      "ā": 193,
      "Ă": 194,
      "ă": 195,
      "Ą": 196,
      "ą": 197,
      "Ć": 198,
      "ć": 199,
      "Ĉ": 200,
      "ĉ": 201,
      "Ċ": 202,
      "ċ": 203,
      "Č": 204,
      "č": 205,
      "Ď": 206,
      "ď": 207,
      "Đ": 208,
      "đ": 209,
      "Ē": 210,
      "ē": 211,
      "Ĕ": 212,
      "ĕ": 213,
      "Ė": 214,
      "ė": 215,
      "Ę": 216,
      "ę": 217,
      "Ě": 218,
      "ě": 219,
      "Ĝ": 220,
      "ĝ": 221,
      "Ğ": 222,
      "ğ": 223,
      "Ġ": 224,
      "ġ": 225,
      "Ģ": 226,
      "ģ": 227,
      "Ĥ": 228,
      "ĥ": 229,
      "Ħ": 230,
      "ħ": 231,
      "Ĩ": 232,
      "ĩ": 233,
      "Ī": 234,
      "ī": 235,
      "Ĭ": 236,
      "ĭ": 237,
      "Į": 238,
      "į": 239,
      "İ": 240,
      "ı": 241,
      "Ĳ": 242,
      "ĳ": 243,
      "Ĵ": 244,
      "ĵ": 245,
      "Ķ": 246,
      "ķ": 247,
      "ĸ": 248,
      "Ĺ": 249,
      "ĺ": 250,
      "Ļ": 251,
      "ļ": 252,
      "Ľ": 253,
      "ľ": 254,
      "Ŀ": 255,
      "ŀ": 256,
      "Ł": 257,
      "ł": 258,
      "Ń": 259,
      "Ġa": 260,
      "in": 261,
      "an": 262,
      "Ġd": 263,
      "Ġs": 264,
      "un": 265,
      "es": 266,
      "en": 267,
      "Ġp": 268,
      "Ġt": 269,
      "Ġb": 270,
      "on": 271,
      "er": 272,
      "Ġc": 273,
      "ing": 274,
      "Ġun": 275,
      "le": 276,
      "re": 277,
      "ou": 278,
      "Ġw": 279,
      "is": 280,
      "ar": 281,
      "Ġm": 282,
      "Ġf": 283,
      "it": 284,
      "Ġh": 285,
      "Ġl": 286,
      "ĠU": 287,
      "ĠUn": 288,
      "om": 289,
      "Ġde": 290,
      "ĠA": 291,
      "Ġg": 292,
      "Ã©": 293,
      "et": 294,
      "he": 295,
      "Ġin": 296,
      "ant": 297,
      "ur": 298,
      "or": 299,
      "me": 300,
      "ir": 301,
      "al": 302,
      "Ġr": 303,
      "Ġen": 304,
      "at": 305,
      "il": 306,
      "Ġune": 307,
      "ent": 308,
      "Ġo": 309,
      "Ġthe": 310,
      "Ġj": 311,
      "Ġan": 312,
      "ve": 313,
      "ue": 314,
      "Ġhom": 315,
      "Ġon": 316,
      "ans": 317,
      "Ġv": 318,
      "ac": 319,
      "ro": 320,
      "Ġsur": 321,
      "Ġdans": 322,
      "em": 323,
      "as": 324,
      "Ġman": 325,
      "ĠT": 326,
      "Ġhomme": 327,
      "au": 328,
      "Ġis": 329,
      "ers": 330,
      "te": 331,
      "Ġof": 332,
      "Ġet": 333,
      "ge": 334,
      "Ġand": 335,
      "and": 336,
      "Ġbl": 337,
      "Ġst": 338,
      "Ġave": 339,
      "Ġavec": 340,
      "Ġch": 341,
      "Ġla": 342,
      "Ġn": 343,
      "Ġdes": 344,
      "ic": 345,
      "ith": 346,
      "Ġwith": 347,
      "ĠUne": 348,
      "Ġgr": 349,
      "ol": 350,
      "ĠÃ": 351,
      "our": 352,
      "ot": 353,
      "ux": 354,
      "Ġre": 355,
      "Ġfem": 356,
      "de": 357,
      "ch": 358,
      "out": 359,
      "Ġpl": 360,
      "une": 361,
      "se": 362,
      "ow": 363,
      "ĠÃł": 364,
      "ay": 365,
      "qu": 366,
      "ĠD": 367,
      "ont": 368,
      "ra": 369,
      "op": 370,
      "all": 371,
      "Ġle": 372,
      "Ġwom": 373,
      "est": 374,
      "Ġwh": 375,
      "ie": 376,
      "Ã¨": 377,
      "irt": 378,
      "Ġsh": 379,
      "pe": 380,
      "us": 381,
      "Ġfemme": 382,
      "king": 383,
      "ack": 384,
      "Ġto": 385,
      "Ġas": 386,
      "Ġare": 387,
      "Ġat": 388,
      "wo": 389,
      "que": 390,
      "anc": 391,
      "Ġwoman": 392,
      "ear": 393,
      "el": 394,
      "Ġbo": 395,
      "eux": 396,
      "onn": 397,
      "Ġpar": 398,
      "ri": 399,
      "Ġy": 400,
      "ard": 401,
      "Ġpers": 402,
      "mes": 403,
      "Ġje": 404,
      "ding": 405,
      "ort": 406,
      "ite": 407,
      "Ġgrou": 408,
      "Ġest": 409,
      "ĠDeux": 410,
      "Ġpe": 411,
      "Ġdo": 412,
      "ople": 413,
      "ĠTwo": 414,
      "am": 415,
      "Ġau": 416,
      "Ġmar": 417,
      "Ġjou": 418,
      "oun": 419,
      "Ġplay": 420,
      "oo": 421,
      "ille": 422,
      "ab": 423,
      "Ãª": 424,
      "ig": 425,
      "her": 426,
      "Ġtra": 427,
      "ting": 428,
      "Ġse": 429,
      "ill": 430,
      "Ġpersonn": 431,
      "im": 432,
      "Ġqu": 433,
      "ien": 434,
      "Ġass": 435,
      "Ġwear": 436,
      "Ġstand": 437,
      "ain": 438,
      "ide": 439,
      "Ġwearing": 440,
      "ile": 441,
      "Ġfr": 442,
      "Ġassis": 443,
      "oir": 444,
      "um": 445,
      "Ġsit": 446,
      "Ġpeople": 447,
      "Ġro": 448,
      "Ġgar": 449,
      "tu": 450,
      "ass": 451,
      "res": 452,
      "Ã©e": 453,
      "ion": 454,
      "age": 455,
      "ver": 456,
      "Ã§": 457,
      "Ġshirt": 458,
      "oung": 459,
      "Ġrou": 460,
      "eau": 461,
      "irl": 462,
      "ire": 463,
      "Ġpr": 464,
      "Ġche": 465,
      "Ġwhite": 466,
      "Ġreg": 467,
      "os": 468,
      "bout": 469,
      "ul": 470,
      "Ġyoung": 471,
      "Ġgirl": 472,
      "Ġwal": 473,
      "vant": 474,
      "ag": 475,
      "Ġblanc": 476,
      "Ã§on": 477,
      "Ġchien": 478,
      "Ġdog": 479,
      "ad": 480,
      "Ġout": 481,
      "fant": 482,
      "ĠgarÃ§on": 483,
      "ĠÃ©": 484,
      "Ġhis": 485,
      "Ġdebout": 486,
      "Ġblack": 487,
      "ne": 488,
      "Ġbe": 489,
      "Ġboy": 490,
      "Ġfa": 491,
      "Ġe": 492,
      "Ġpersonnes": 493,
      "Ġsont": 494,
      "air": 495,
      "Ġwhile": 496,
      "urs": 497,
      "Ġwat": 498,
      "Ġth": 499,
      "andis": 500,
      "Ã¨re": 501,
      "Ġblue": 502,
      "end": 503,
      "Ġar": 504,
      "ap": 505,
      "uit": 506,
      "Ġfille": 507,
      "sh": 508,
      "Ġjeune": 509,
      "Ġble": 510,
      "ors": 511,
      "Ġdevant": 512,
      "Ġenfant": 513,
      "Ġcl": 514,
      "Ġten": 515,
      "id": 516,
      "Ġtandis": 517,
      "Ġred": 518,
      "row": 519,
      "Ġport": 520,
      "Ġsitting": 521,
      "ine": 522,
      "Ġtr": 523,
      "shirt": 524,
      "Ġdu": 525,
      "Ġcour": 526,
      "Ġpet": 527,
      "ke": 528,
      "ild": 529,
      "ong": 530,
      "Ġgroupe": 531,
      "ct": 532,
      "Ġnoir": 533,
      "che": 534,
      "Ġmen": 535,
      "own": 536,
      "if": 537,
      "able": 538,
      "ks": 539,
      "ate": 540,
      "Ġhol": 541,
      "Ġhommes": 542,
      "Ġcou": 543,
      "tÃ©": 544,
      "Ġstanding": 545,
      "ĠDes": 546,
      "Ġor": 547,
      "Ġplaying": 548,
      "Ġstre": 549,
      "ball": 550,
      "ĠvÃª": 551,
      "roun": 552,
      "Ġchild": 553,
      "Ġson": 554,
      "up": 555,
      "tes": 556,
      "Ġgroup": 557,
      "tre": 558,
      "Ġque": 559,
      "Ġloo": 560,
      "Ġstreet": 561,
      "Ġrue": 562,
      "oc": 563,
      "ĠL": 564,
      "Ġne": 565,
      "ach": 566,
      "Ġles": 567,
      "Ġball": 568,
      "Ġrouge": 569,
      "ier": 570,
      "bo": 571,
      "ld": 572,
      "Ġsk": 573,
      "one": 574,
      "be": 575,
      "ient": 576,
      "Ġdown": 577,
      "round": 578,
      "Ġcar": 579,
      "Ġbr": 580,
      "Ġpour": 581,
      "ree": 582,
      "Ġwalking": 583,
      "ell": 584,
      "Ġfor": 585,
      "st": 586,
      "Ġmarch": 587,
      "Ġportant": 588,
      "Ġsa": 589,
      "Ġpo": 590,
      "Ġk": 591,
      "Ġher": 592,
      "Ġsm": 593,
      "ise": 594,
      "ace": 595,
      "Ġjoue": 596,
      "Ã´": 597,
      "Ġtrain": 598,
      "Ġbu": 599,
      "ens": 600,
      "Ġfront": 601,
      "Ġregard": 602,
      "gh": 603,
      "Ġma": 604,
      "Ġph": 605,
      "Ã©l": 606,
      "pl": 607,
      "Ã¨s": 608,
      "Ġal": 609,
      "Ġver": 610,
      "ĠS": 611,
      "ĠP": 612,
      "Ġholding": 613,
      "Ġfl": 614,
      "Ġbas": 615,
      "oto": 616,
      "Ã¢": 617,
      "ts": 618,
      "ess": 619,
      "Ġsom": 620,
      "ous": 621,
      "rois": 622,
      "riÃ¨re": 623,
      "Ġsau": 624,
      "Ġwater": 625,
      "Ġbleu": 626,
      "ros": 627,
      "arde": 628,
      "ce": 629,
      "Ã©s": 630,
      "are": 631,
      "Ġsw": 632,
      "Ġgens": 633,
      "ique": 634,
      "ter": 635,
      "Ġdres": 636,
      "side": 637,
      "to": 638,
      "rou": 639,
      "Ġlit": 640,
      "ure": 641,
      "Ġcon": 642,
      "Ġcom": 643,
      "Ġsc": 644,
      "Ġtrav": 645,
      "iv": 646,
      "ĠM": 647,
      "Ġby": 648,
      "Ġpetit": 649,
      "ĠTh": 650,
      "emb": 651,
      "Ġoran": 652,
      "tle": 653,
      "ĠThe": 654,
      "ĠcÃ´": 655,
      "Ġfemmes": 656,
      "ed": 657,
      "oot": 658,
      "ump": 659,
      "Ġfait": 660,
      "Ġtable": 661,
      "Ġphoto": 662,
      "ĠC": 663,
      "yc": 664,
      "Ġup": 665,
      "orm": 666,
      "ying": 667,
      "Ġcol": 668,
      "hing": 669,
      "reen": 670,
      "Ġpro": 671,
      "Ġrun": 672,
      "ph": 673,
      "igh": 674,
      "Ġsn": 675,
      "Ġback": 676,
      "ple": 677,
      "Ġqui": 678,
      "Ġwor": 679,
      "ĠAn": 680,
      "Ġchem": 681,
      "Ġbal": 682,
      "ĠcÃ´tÃ©": 683,
      "Ġjump": 684,
      "Ġorange": 685,
      "Ġgreen": 686,
      "ĠdÃ©": 687,
      "Ġwomen": 688,
      "bre": 689,
      "Ġone": 690,
      "ood": 691,
      "ck": 692,
      "ut": 693,
      "Ġtient": 694,
      "Ġdeux": 695,
      "ents": 696,
      "Ġbi": 697,
      "ond": 698,
      "ind": 699,
      "ette": 700,
      "Ġsnow": 701,
      "les": 702,
      "board": 703,
      "ole": 704,
      "arge": 705,
      "Ġlooking": 706,
      "Ġcam": 707,
      "av": 708,
      "Ġregarde": 709,
      "Ġhat": 710,
      "ĠTrois": 711,
      "ture": 712,
      "Ġoutside": 713,
      "ĠThree": 714,
      "ff": 715,
      "rown": 716,
      "Ġco": 717,
      "Ġlarge": 718,
      "Ġenfants": 719,
      "Ġlittle": 720,
      "ren": 721,
      "Ġatt": 722,
      "Ġside": 723,
      "Ġcas": 724,
      "ĠvÃªtu": 725,
      "Ġlong": 726,
      "Ġgl": 727,
      "Ġap": 728,
      "Ġri": 729,
      "Ġthrou": 730,
      "Ã¢t": 731,
      "Ġthrough": 732,
      "Ġfoot": 733,
      "Ġguit": 734,
      "Ġot": 735,
      "isant": 736,
      "Ġja": 737,
      "ĠbÃ¢t": 738,
      "ĠprÃ¨s": 739,
      "ellow": 740,
      "Ġad": 741,
      "Ġhe": 742,
      "unes": 743,
      "Ġbrown": 744,
      "Ġgrand": 745,
      "Ġyellow": 746,
      "ore": 747,
      "ly": 748,
      "Ġtwo": 749,
      "ub": 750,
      "Ġpersonne": 751,
      "iss": 752,
      "ket": 753,
      "Ġcha": 754,
      "Ġter": 755,
      "Ġover": 756,
      "sed": 757,
      "Ġtenant": 758,
      "Ġbat": 759,
      "Ġjouant": 760,
      "Ġfrom": 761,
      "ĠvÃªt": 762,
      "ip": 763,
      "ation": 764,
      "ettes": 765,
      "ĠvÃ©l": 766,
      "Ġair": 767,
      "Ġtheir": 768,
      "xt": 769,
      "iment": 770,
      "ige": 771,
      "Ġshort": 772,
      "Ġinto": 773,
      "Ġta": 774,
      "ning": 775,
      "ĠF": 776,
      "ons": 777,
      "ord": 778,
      "Ġskate": 779,
      "str": 780,
      "Ġhand": 781,
      "Ġpos": 782,
      "Ġperson": 783,
      "Ġbar": 784,
      "Ġbuil": 785,
      "ink": 786,
      "alk": 787,
      "Ġwatch": 788,
      "tt": 789,
      "elle": 790,
      "Ġbuilding": 791,
      "Ġtro": 792,
      "Ġchildren": 793,
      "acket": 794,
      "Ġjaune": 795,
      "Ġnext": 796,
      "Ġchemise": 797,
      "aux": 798,
      "Ġother": 799,
      "Ġmain": 800,
      "ques": 801,
      "Ġjeunes": 802,
      "Ġper": 803,
      "ose": 804,
      "este": 805,
      "Ġsmall": 806,
      "Ġold": 807,
      "oule": 808,
      "Ġnear": 809,
      "ĠvÃ©lo": 810,
      "orte": 811,
      "Ġac": 812,
      "ian": 813,
      "Ã©t": 814,
      "other": 815,
      "Ġsome": 816,
      "Ġdressed": 817,
      "Ġpant": 818,
      "der": 819,
      "Ġcrow": 820,
      "phone": 821,
      "ment": 822,
      "Ġjacket": 823,
      "ign": 824,
      "Ġfootball": 825,
      "Ġquel": 826,
      "Ġpetite": 827,
      "Ġaut": 828,
      "Ġjouent": 829,
      "Ġtrava": 830,
      "Ġlun": 831,
      "oire": 832,
      "Ġgrass": 833,
      "illes": 834,
      "ade": 835,
      "aut": 836,
      "dy": 837,
      "ric": 838,
      "esc": 839,
      "Ġte": 840,
      "Ġlors": 841,
      "Ġregardant": 842,
      "Ġtout": 843,
      "Ġmont": 844,
      "ground": 845,
      "hors": 846,
      "Ġoff": 847,
      "Ġdehors": 848,
      "cer": 849,
      "rap": 850,
      "Ġsp": 851,
      "walk": 852,
      "Ġmarche": 853,
      "ĠbÃ¢timent": 854,
      "rie": 855,
      "Ġex": 856,
      "eat": 857,
      "ĠPe": 858,
      "Ġit": 859,
      "ight": 860,
      "ast": 861,
      "Ġriding": 862,
      "Ġtrott": 863,
      "asses": 864,
      "ds": 865,
      "Ġrunning": 866,
      "ĠB": 867,
      "ross": 868,
      "Ġlunettes": 869,
      "Ġblanche": 870,
      "ĠPeople": 871,
      "form": 872,
      "Ġcos": 873,
      "atch": 874,
      "Ġveste": 875,
      "Ġcourt": 876,
      "Ġcostu": 877,
      "Ġbrun": 878,
      "Ġaround": 879,
      "Ġanother": 880,
      "Ġsour": 881,
      "Ġcouple": 882,
      "Ġmus": 883,
      "Ġvo": 884,
      "ield": 885,
      "Ġpic": 886,
      "ist": 887,
      "Ġses": 888,
      "Ġassise": 889,
      "ction": 890,
      "Ġtrottoir": 891,
      "iture": 892,
      "Ġder": 893,
      "Ġbus": 894,
      "Ġmic": 895,
      "Ġbase": 896,
      "Ġsaute": 897,
      "Ġregardent": 898,
      "Ġfield": 899,
      "Ġblond": 900,
      "Ġfaisant": 901,
      "ive": 902,
      "veux": 903,
      "ance": 904,
      "emble": 905,
      "Ġautre": 906,
      "Ġbeach": 907,
      "Ġcheveux": 908,
      "aire": 909,
      "Ġsidewalk": 910,
      "Ãªte": 911,
      "Ġfoule": 912,
      "ĠMan": 913,
      "ity": 914,
      "iste": 915,
      "ĠarriÃ¨re": 916,
      "Ġskateboard": 917,
      "tant": 918,
      "ice": 919,
      "ron": 920,
      "Ġvert": 921,
      "ĠÃ¢": 922,
      "ling": 923,
      "par": 924,
      "Ġmarchant": 925,
      "Ã©es": 926,
      "ick": 927,
      "Ġporte": 928,
      "ĠderriÃ¨re": 929,
      "tain": 930,
      "Ġplage": 931,
      "Ġcrowd": 932,
      "use": 933,
      "ĠÃ©c": 934,
      "Ġvie": 935,
      "Ġstands": 936,
      "ame": 937,
      "Ġbleue": 938,
      "Ġrest": 939,
      "Ġpol": 940,
      "Ġou": 941,
      "Ġcan": 942,
      "ycle": 943,
      "Ġpass": 944,
      "ures": 945,
      "Ġpink": 946,
      "Ġbri": 947,
      "ĠÃ¢g": 948,
      "Ġjumping": 949,
      "way": 950,
      "Ġtal": 951,
      "Ġmot": 952,
      "Ġsits": 953,
      "ĠLe": 954,
      "Ġbeh": 955,
      "Ġwork": 956,
      "Ġbehind": 957,
      "isc": 958,
      "peau": 959,
      "Ġam": 960,
      "ale": 961,
      "Ġunif": 962,
      "Ġsun": 963,
      "Ġob": 964,
      "Ġface": 965,
      "ement": 966,
      "uy": 967,
      "asse": 968,
      "plan": 969,
      "Ġperform": 970,
      "Ġfont": 971,
      "iling": 972,
      "ieurs": 973,
      "ping": 974,
      "Ġspe": 975,
      "Ġcomp": 976,
      "'s": 977,
      "Ġsac": 978,
      "Ġdress": 979,
      "ges": 980,
      "endant": 981,
      "Ġall": 982,
      "ies": 983,
      "oy": 984,
      "Ġneige": 985,
      "Ã¨ne": 986,
      "Ġpart": 987,
      "get": 988,
      "Ġdr": 989,
      "Ġbackground": 990,
      "uis": 991,
      "Ġgirls": 992,
      "ating": 993,
      "Ġballon": 994,
      "Ġsurf": 995,
      "Ġwa": 996,
      "Ġsweat": 997,
      "ĠQ": 998,
      "iat": 999,
      "Ġtop": 1000,
      "Ġguitar": 1001,
      "usieurs": 1002,
      "Ġquelque": 1003,
      "Ġrose": 1004,
      "iant": 1005,
      "Ġbike": 1006,
      "ĠI": 1007,
      "Ġmur": 1008,
      "Ġens": 1009,
      "Ġvers": 1010,
      "ourn": 1011,
      "Ġwall": 1012,
      "Ġchose": 1013,
      "ĠW": 1014,
      "Ġpat": 1015,
      "Ġcity": 1016,
      "ler": 1017,
      "ded": 1018,
      "ench": 1019,
      "Ġbasket": 1020,
      "Ġmicro": 1021,
      "Ġfilles": 1022,
      "tÃ©rie": 1023,
      "Ġbic": 1024,
      "Ġplayer": 1025,
      "Ġpark": 1026,
      "nis": 1027,
      "Ġbou": 1028,
      "dess": 1029,
      "Ġhead": 1030,
      "Ġsoc": 1031,
      "Ġcont": 1032,
      "Ġsol": 1033,
      "Ġtenue": 1034,
      "Ġgo": 1035,
      "Ġlooks": 1036,
      "Ġtravers": 1037,
      "Ġcamer": 1038,
      "Ġvi": 1039,
      "herbe": 1040,
      "ang": 1041,
      "Ġadul": 1042,
      "Ġmarchent": 1043,
      "atre": 1044,
      "gg": 1045,
      "aur": 1046,
      "Ġchiens": 1047,
      "dessus": 1048,
      "amp": 1049,
      "veral": 1050,
      "Ġthat": 1051,
      "ĠrÃ©": 1052,
      "Ġcolor": 1053,
      "Ġchapeau": 1054,
      "Ġhair": 1055,
      "Ġtennis": 1056,
      "ĠO": 1057,
      "Ġsous": 1058,
      "Ġaux": 1059,
      "Ġrobe": 1060,
      "ountain": 1061,
      "Ġdogs": 1062,
      "Ġasiat": 1063,
      "ycl": 1064,
      "Ġbaseball": 1065,
      "Ġrestaur": 1066,
      "tÃ©rieur": 1067,
      "do": 1068,
      "Ġhel": 1069,
      "Ġclot": 1070,
      "illot": 1071,
      "Ġparc": 1072,
      "Ġchev": 1073,
      "Ġcourse": 1074,
      "ull": 1075,
      "Ġmaillot": 1076,
      "Ġcamera": 1077,
      "Ġra": 1078,
      "Ġballe": 1079,
      "Ġville": 1080,
      "Ġnoire": 1081,
      "Ġcostume": 1082,
      "Ġrestaurant": 1083,
      "ped": 1084,
      "ĠAs": 1085,
      "Ġbois": 1086,
      "Ġsand": 1087,
      "Ġtalking": 1088,
      "ething": 1089,
      "orse": 1090,
      "ak": 1091,
      "hom": 1092,
      "Ġsomething": 1093,
      "dle": 1094,
      "ches": 1095,
      "Ġautour": 1096,
      "iÃ¨re": 1097,
      "ets": 1098,
      "Ġsole": 1099,
      "Ġmag": 1100,
      "Ġmid": 1101,
      "Ġolder": 1102,
      "Ġleurs": 1103,
      "Ġalong": 1104,
      "Ġsoleil": 1105,
      "ues": 1106,
      "Ġwalks": 1107,
      "Ġfe": 1108,
      "Ġfood": 1109,
      "Ġsoccer": 1110,
      "Ġsal": 1111,
      "Ġrock": 1112,
      "Ġbord": 1113,
      "Ġlady": 1114,
      "escal": 1115,
      "Ġtoget": 1116,
      "Ġwalk": 1117,
      "Ġtogether": 1118,
      "Ġag": 1119,
      "Ġworking": 1120,
      "Ġguitare": 1121,
      "ix": 1122,
      "je": 1123,
      "lant": 1124,
      "ente": 1125,
      "ule": 1126,
      "key": 1127,
      "Ġfen": 1128,
      "Ġlu": 1129,
      "rain": 1130,
      "ĠgarÃ§ons": 1131,
      "Ġband": 1132,
      "Ġchant": 1133,
      "ĠG": 1134,
      "ĠtÃ©l": 1135,
      "Ġwood": 1136,
      "Ġmil": 1137,
      "Ġgray": 1138,
      "Ġboys": 1139,
      "Ġpie": 1140,
      "ils": 1141,
      "Ġmatch": 1142,
      "Ġop": 1143,
      "Ġassises": 1144,
      "ĠSe": 1145,
      "ouse": 1146,
      "Ġsmiling": 1147,
      "cou": 1148,
      "Ġhim": 1149,
      "stru": 1150,
      "pare": 1151,
      "cher": 1152,
      "ais": 1153,
      "Ġ\"": 1154,
      "Ġgame": 1155,
      "Ġpicture": 1156,
      "int": 1157,
      "Ġhas": 1158,
      "autre": 1159,
      "Ġprend": 1160,
      "Ġcor": 1161,
      "Ġhab": 1162,
      "rying": 1163,
      "Ġensemble": 1164,
      "mer": 1165,
      "Ġbanc": 1166,
      "quette": 1167,
      "Ġshorts": 1168,
      "Ġgros": 1169,
      "Ġguy": 1170,
      "Ġmarron": 1171,
      "Ġbench": 1172,
      "ope": 1173,
      "Ġplays": 1174,
      "Ġmusic": 1175,
      "vers": 1176,
      "Ġroad": 1177,
      "iff": 1178,
      "ĠscÃ¨ne": 1179,
      "Ġpre": 1180,
      "iers": 1181,
      "ps": 1182,
      "Ġpain": 1183,
      "Ġterrain": 1184,
      "ĠQu": 1185,
      "aff": 1186,
      "Ġtravaill": 1187,
      "ĠAsian": 1188,
      "ather": 1189,
      "Ġthem": 1190,
      "Ġterre": 1191,
      "Ġholds": 1192,
      "Ġpantal": 1193,
      "Ġhabill": 1194,
      "imb": 1195,
      "Ġjean": 1196,
      "iÃ¨": 1197,
      "ombre": 1198,
      "ĠPl": 1199,
      "ĠQuatre": 1200,
      "Ġus": 1201,
      "Ã©b": 1202,
      "kes": 1203,
      "ĠFour": 1204,
      "Ġple": 1205,
      "Ġbag": 1206,
      "Ġjoueur": 1207,
      "Ġsuit": 1208,
      "ements": 1209,
      "Ġgars": 1210,
      "Ġjourn": 1211,
      "Ġswim": 1212,
      "Ġuniform": 1213,
      "Ġpub": 1214,
      "Ġvis": 1215,
      "strum": 1216,
      "ĠtÃ©lÃ©": 1217,
      "Ġclimb": 1218,
      "Ġsl": 1219,
      "Ġpap": 1220,
      "ĠvÃªtue": 1221,
      "nent": 1222,
      "Ġglasses": 1223,
      "Ġpants": 1224,
      "Ġmet": 1225,
      "Ġhaut": 1226,
      "Ġkid": 1227,
      "Ġunder": 1228,
      "Ġmo": 1229,
      "met": 1230,
      "Ġbab": 1231,
      "ark": 1232,
      "Ġent": 1233,
      "Ġstage": 1234,
      "ĠPlusieurs": 1235,
      "Ġdirt": 1236,
      "Ġcarrying": 1237,
      "Ġasiatique": 1238,
      "ject": 1239,
      "Ġlui": 1240,
      "ud": 1241,
      "Ġsign": 1242,
      "hes": 1243,
      "Ġpubl": 1244,
      "Ġsing": 1245,
      "ition": 1246,
      "Ġart": 1247,
      "Ġinstrum": 1248,
      "Ġgris": 1249,
      "ricain": 1250,
      "Ġbicycle": 1251,
      "ieu": 1252,
      "Ġspect": 1253,
      "Ġrid": 1254,
      "Ġbaby": 1255,
      "ĠY": 1256,
      "Ġescal": 1257,
      "onde": 1258,
      "lle": 1259,
      "Ġpantalon": 1260,
      "Ġmountain": 1261,
      "orc": 1262,
      "Ġvoiture": 1263,
      "ading": 1264,
      "Ġtree": 1265,
      "ĠtÃªte": 1266,
      "ourr": 1267,
      "app": 1268,
      "Ġpur": 1269,
      "Ġdos": 1270,
      "Ġoutdo": 1271,
      "aving": 1272,
      "Ã®": 1273,
      "Ġca": 1274,
      "tent": 1275,
      "Ġwait": 1276,
      "util": 1277,
      "struction": 1278,
      "Ġdanc": 1279,
      "Ġcoll": 1280,
      "Ġtan": 1281,
      "Ġrep": 1282,
      "Ġjeans": 1283,
      "ĠSeveral": 1284,
      "ĠmÃ©t": 1285,
      "ĠtrÃ¨s": 1286,
      "gl": 1287,
      "Ġcycl": 1288,
      "Ġstri": 1289,
      "tte": 1290,
      "ĠprÃ©": 1291,
      "Ġpool": 1292,
      "Ġcasque": 1293,
      "Ġvol": 1294,
      "Ġshop": 1295,
      "Ġbot": 1296,
      "ĠbÃ©b": 1297,
      "ust": 1298,
      "Ġjumps": 1299,
      "Ġser": 1300,
      "Ġrace": 1301,
      "Ġboat": 1302,
      "ards": 1303,
      "ĠÃ©qu": 1304,
      "Ġbateau": 1305,
      "Ġtaking": 1306,
      "Ġim": 1307,
      "here": 1308,
      "ĠLa": 1309,
      "Ġverte": 1310,
      "Ġtow": 1311,
      "Ġeach": 1312,
      "Ġcasquette": 1313,
      "Ġmontag": 1314,
      "Ġnourr": 1315,
      "Ġutil": 1316,
      "Ġchau": 1317,
      "Ġpose": 1318,
      "Ġcr": 1319,
      "Ġroute": 1320,
      "iques": 1321,
      "Ġdra": 1322,
      "leurs": 1323,
      "Ġchair": 1324,
      "ockey": 1325,
      "Ġrem": 1326,
      "Ġdoing": 1327,
      "Ġpublic": 1328,
      "Ġdark": 1329,
      "Ġcap": 1330,
      "Ġouv": 1331,
      "lent": 1332,
      "lee": 1333,
      "Ġray": 1334,
      "Ġcoat": 1335,
      "Ġcheval": 1336,
      "Ġmout": 1337,
      "ley": 1338,
      "Ġmach": 1339,
      "Ã©c": 1340,
      "etting": 1341,
      "ĠbÃ©bÃ©": 1342,
      "Ġchamp": 1343,
      "Ġwatching": 1344,
      "Ġacross": 1345,
      "vent": 1346,
      "act": 1347,
      "asin": 1348,
      "Ġarea": 1349,
      "ner": 1350,
      "Ġaf": 1351,
      "ĠÃ©t": 1352,
      "Ġprof": 1353,
      "Ġteam": 1354,
      "Ġmagasin": 1355,
      "Ġmale": 1356,
      "ĠCh": 1357,
      "ĠvÃªtements": 1358,
      "autres": 1359,
      "Ġmiddle": 1360,
      "Ġday": 1361,
      "Ġacc": 1362,
      "ipe": 1363,
      "Ġtrois": 1364,
      "Ġcuis": 1365,
      "Ġmant": 1366,
      "itÃ©": 1367,
      "Ã©r": 1368,
      "ted": 1369,
      "ex": 1370,
      "Ġhands": 1371,
      "Ġmanteau": 1372,
      "uc": 1373,
      "Ġnombre": 1374,
      "Ġdess": 1375,
      "Ġsouriant": 1376,
      "Ġvest": 1377,
      "Ġsautant": 1378,
      "Ġgrande": 1379,
      "ves": 1380,
      "ĠtÃ©lÃ©phone": 1381,
      "Ġpous": 1382,
      "Ġpendant": 1383,
      "Ã©qu": 1384,
      "Ġrouges": 1385,
      "ĠN": 1386,
      "Ġpisc": 1387,
      "Ġbow": 1388,
      "art": 1389,
      "Ġlo": 1390,
      "Ġground": 1391,
      "Ġpiscine": 1392,
      "Ġstore": 1393,
      "Ġroom": 1394,
      "Ġhorse": 1395,
      "Ġswing": 1396,
      "ll": 1397,
      "Ġsable": 1398,
      "onc": 1399,
      "Ġplan": 1400,
      "Ġperforming": 1401,
      "Ġnourriture": 1402,
      "Ġram": 1403,
      "Ġtoy": 1404,
      "ght": 1405,
      "Ġcow": 1406,
      "pt": 1407,
      "Ġwho": 1408,
      "Ġeating": 1409,
      "Ġwind": 1410,
      "Ġdesc": 1411,
      "per": 1412,
      "Ġfemale": 1413,
      "onne": 1414,
      "Ġmilieu": 1415,
      "ym": 1416,
      "ĠH": 1417,
      "Ġbeing": 1418,
      "Ġcourant": 1419,
      "ger": 1420,
      "Ġdisc": 1421,
      "uring": 1422,
      "Ġarm": 1423,
      "Ġflo": 1424,
      "Ġpan": 1425,
      "Ã©ricain": 1426,
      "Ġread": 1427,
      "ful": 1428,
      "Ġstr": 1429,
      "Ġbeau": 1430,
      "ari": 1431,
      "ĠIl": 1432,
      "Ġcontre": 1433,
      "Ġmouth": 1434,
      "ob": 1435,
      "Ġtre": 1436,
      "Ġleur": 1437,
      "Ãªt": 1438,
      "Ġconstruction": 1439,
      "Ġphotog": 1440,
      "ĠWom": 1441,
      "Ġusing": 1442,
      "Ġpier": 1443,
      "ouve": 1444,
      "Ġgather": 1445,
      "Ġfam": 1446,
      "Ġshe": 1447,
      "Ġstriped": 1448,
      "Ġouvri": 1449,
      "ss": 1450,
      "Ġpurple": 1451,
      "ionn": 1452,
      "ines": 1453,
      "Ġprom": 1454,
      "Ġfaire": 1455,
      "Ġmicrophone": 1456,
      "uits": 1457,
      "glasses": 1458,
      "ins": 1459,
      "Ġste": 1460,
      "ish": 1461,
      "Ġparle": 1462,
      "ĠLes": 1463,
      "aired": 1464,
      "homme": 1465,
      "fl": 1466,
      "Ġsho": 1467,
      "Ġcover": 1468,
      "dge": 1469,
      "Ġbasketball": 1470,
      "Ġpast": 1471,
      "Ġenj": 1472,
      "man": 1473,
      "ti": 1474,
      "Ġline": 1475,
      "Ġviole": 1476,
      "Ġrol": 1477,
      "Ġblan": 1478,
      "Ġem": 1479,
      "Ġgile": 1480,
      "Ġruns": 1481,
      "Ġwindow": 1482,
      "haired": 1483,
      "Ġhockey": 1484,
      "Ġnoirs": 1485,
      "Ġpasse": 1486,
      "boy": 1487,
      "Ġfeu": 1488,
      "ĠYoung": 1489,
      "ming": 1490,
      "ry": 1491,
      "uck": 1492,
      "Ġgraff": 1493,
      "Ġbras": 1494,
      "Ġsport": 1495,
      "Ġso": 1496,
      "Ġcross": 1497,
      "Ġliv": 1498,
      "Ġpla": 1499,
      "Ġlook": 1500,
      "Ġbik": 1501,
      "ĠjournÃ©e": 1502,
      "ave": 1503,
      "ib": 1504,
      "enant": 1505,
      "Ġblancs": 1506,
      "ardeur": 1507,
      "Ġmachine": 1508,
      "Ġgraffit": 1509,
      "bres": 1510,
      "Ġel": 1511,
      "Ġstat": 1512,
      "Ġreading": 1513,
      "Ġsunglasses": 1514,
      "vert": 1515,
      "Ġcart": 1516,
      "ft": 1517,
      "Ġnum": 1518,
      "Ġallong": 1519,
      "Ġclothing": 1520,
      "Ġvisage": 1521,
      "by": 1522,
      "ants": 1523,
      "Ġanim": 1524,
      "Ġplayers": 1525,
      "Ġthree": 1526,
      "Ġcatch": 1527,
      "Ġdanse": 1528,
      "Ġnu": 1529,
      "Ġvieil": 1530,
      "uie": 1531,
      "ĠThere": 1532,
      "igne": 1533,
      "Ġcourent": 1534,
      "Ġtravaille": 1535,
      "Ġtab": 1536,
      "Ġflow": 1537,
      "cean": 1538,
      "ĠÃ¢gÃ©": 1539,
      "Ġshow": 1540,
      "Ġfrap": 1541,
      "Ġboo": 1542,
      "Ãªtre": 1543,
      "Ġrass": 1544,
      "Ġriv": 1545,
      "ays": 1546,
      "Ġve": 1547,
      "Ġocean": 1548,
      "Ġblonde": 1549,
      "ages": 1550,
      "Ġits": 1551,
      "ĠE": 1552,
      "Ġpel": 1553,
      "att": 1554,
      "Ġchemin": 1555,
      "Ġwatches": 1556,
      "Ġduring": 1557,
      "itch": 1558,
      "Ġgym": 1559,
      "ĠdÃ©b": 1560,
      "Ġmotorc": 1561,
      "pos": 1562,
      "Ġess": 1563,
      "leur": 1564,
      "Ġoutf": 1565,
      "Ġportable": 1566,
      "Ġhelmet": 1567,
      "Ġbright": 1568,
      "Ġclimbing": 1569,
      "Ġkids": 1570,
      "Ġce": 1571,
      "ath": 1572,
      "ainst": 1573,
      "Ġsalle": 1574,
      "Ġsourit": 1575,
      "Ġprod": 1576,
      "ated": 1577,
      "ffe": 1578,
      "ored": 1579,
      "Ġmon": 1580,
      "Ã©an": 1581,
      "Ġagainst": 1582,
      "Ġoutfit": 1583,
      "iz": 1584,
      "Ġdri": 1585,
      "Ġgol": 1586,
      "Ġind": 1587,
      "Ġarbre": 1588,
      "Ġfence": 1589,
      "Ġdancing": 1590,
      "Ġmontagne": 1591,
      "Ġelder": 1592,
      "rÃ¨s": 1593,
      "ving": 1594,
      "ĠJ": 1595,
      "Ġum": 1596,
      "isbe": 1597,
      "Ġfire": 1598,
      "orme": 1599,
      "Ġvend": 1600,
      "brell": 1601,
      "Ġattend": 1602,
      "Ġumbrell": 1603,
      "Ġcre": 1604,
      "Ġfig": 1605,
      "Ġhill": 1606,
      "teau": 1607,
      "ots": 1608,
      "coup": 1609,
      "Ġtir": 1610,
      "Ġnet": 1611,
      "ked": 1612,
      "Ġmains": 1613,
      "Ġrides": 1614,
      "az": 1615,
      "rit": 1616,
      "Ġelderly": 1617,
      "Ġcell": 1618,
      "Ġmas": 1619,
      "augh": 1620,
      "Ġthrow": 1621,
      "Ġcostumes": 1622,
      "Ġchauss": 1623,
      "isbee": 1624,
      "inq": 1625,
      "Ġdis": 1626,
      "led": 1627,
      "Ġmoto": 1628,
      "omb": 1629,
      "ales": 1630,
      "Ġcomb": 1631,
      "Ġbain": 1632,
      "istes": 1633,
      "Ġhigh": 1634,
      "ocÃ©an": 1635,
      "Ġapp": 1636,
      "hic": 1637,
      "Ġslee": 1638,
      "Ġpiste": 1639,
      "Ġcer": 1640,
      "Ġtrack": 1641,
      "lect": 1642,
      "acing": 1643,
      "Ġautres": 1644,
      "Ġju": 1645,
      "Ġplast": 1646,
      "Ġposing": 1647,
      "ĠOne": 1648,
      "Ġchante": 1649,
      "Ġwooden": 1650,
      "Ġtrees": 1651,
      "ike": 1652,
      "jet": 1653,
      "Ġabout": 1654,
      "Ġfleurs": 1655,
      "teur": 1656,
      "Ġmais": 1657,
      "Ġsort": 1658,
      "Ġhaving": 1659,
      "ome": 1660,
      "Ġoutdoor": 1661,
      "cl": 1662,
      "nes": 1663,
      "Ġz": 1664,
      "Ġopen": 1665,
      "Ġvolley": 1666,
      "Ġrempl": 1667,
      "Ġcovered": 1668,
      "ĠR": 1669,
      "ĠV": 1670,
      "enfant": 1671,
      "Ġpom": 1672,
      "Ġthey": 1673,
      "ash": 1674,
      "Ġprepar": 1675,
      "Ġcuisine": 1676,
      "Ġbear": 1677,
      "Ġme": 1678,
      "iles": 1679,
      "Ġjeu": 1680,
      "Ġmarket": 1681,
      "aine": 1682,
      "ĠÃ¢gÃ©e": 1683,
      "Ġdrin": 1684,
      "Ġwaiting": 1685,
      "Ġstatue": 1686,
      "Ġtente": 1687,
      "Ġfonc": 1688,
      "Ġvag": 1689,
      "anche": 1690,
      "ateur": 1691,
      "Ġconvers": 1692,
      "Ġswimming": 1693,
      "mp": 1694,
      "ses": 1695,
      "Ġgetting": 1696,
      "Ġcolorful": 1697,
      "port": 1698,
      "ats": 1699,
      "ĠmarchÃ©": 1700,
      "utting": 1701,
      "Ġfloor": 1702,
      "anÃ§": 1703,
      "urb": 1704,
      "aning": 1705,
      "enou": 1706,
      "Ġtou": 1707,
      "Ġcig": 1708,
      "ily": 1709,
      "entre": 1710,
      "uses": 1711,
      "Ġtrying": 1712,
      "Ġski": 1713,
      "Ġcamion": 1714,
      "ĠaprÃ¨s": 1715,
      "ĠamÃ©ricain": 1716,
      "Ġplein": 1717,
      "ase": 1718,
      "ateurs": 1719,
      "Ġsnowboard": 1720,
      "Ġbarbe": 1721,
      "Ġworkers": 1722,
      "ises": 1723,
      "Ġvery": 1724,
      "hers": 1725,
      "Ã¹": 1726,
      "Ġtour": 1727,
      "Ġinstruments": 1728,
      "Ġbusy": 1729,
      "Ġpouss": 1730,
      "Ġice": 1731,
      "Ġpull": 1732,
      "Ġcir": 1733,
      "Ġparlant": 1734,
      "Ġshirts": 1735,
      "Ġnew": 1736,
      "Ġsinging": 1737,
      "cor": 1738,
      "gent": 1739,
      "Ġcle": 1740,
      "Ġlad": 1741,
      "iennent": 1742,
      "Ġpartic": 1743,
      "ĠWoman": 1744,
      "Ġrassemb": 1745,
      "bes": 1746,
      "Ġtri": 1747,
      "ĠoÃ¹": 1748,
      "Ġtenues": 1749,
      "ai": 1750,
      "ĠThis": 1751,
      "ug": 1752,
      "Ġdiff": 1753,
      "Ġlac": 1754,
      "ache": 1755,
      "ult": 1756,
      "ĠvÃªtus": 1757,
      "raper": 1758,
      "ĠpiÃ¨": 1759,
      "let": 1760,
      "Ġhang": 1761,
      "ork": 1762,
      "ich": 1763,
      "Ġtruck": 1764,
      "Ġpath": 1765,
      "extÃ©rieur": 1766,
      "Ġcigare": 1767,
      "ser": 1768,
      "Ã©g": 1769,
      "roup": 1770,
      "Ġdescend": 1771,
      "itchen": 1772,
      "Ġstair": 1773,
      "Ġbox": 1774,
      "Ġjouer": 1775,
      "Ġflag": 1776,
      "Ġcompet": 1777,
      "Ġbook": 1778,
      "dd": 1779,
      "Ġtent": 1780,
      "Ġmat": 1781,
      "Ġride": 1782,
      "Ġbody": 1783,
      "Ġconc": 1784,
      "pareil": 1785,
      "Ġ2": 1786,
      "Ġcra": 1787,
      "Ġnuit": 1788,
      "ĠclÃ´": 1789,
      "Ġjoueurs": 1790,
      "Ġpaper": 1791,
      "ium": 1792,
      "Ġentre": 1793,
      "Ġlaying": 1794,
      "ĠSome": 1795,
      "hommes": 1796,
      "Ġtravaillant": 1797,
      "ĠprÃ©par": 1798,
      "Ġviolet": 1799,
      "Ġjouet": 1800,
      "ĠÃ©p": 1801,
      "ĠMen": 1802,
      "Ġcirc": 1803,
      "ere": 1804,
      "ĠrayÃ©": 1805,
      "ber": 1806,
      "Ġbre": 1807,
      "Ġhats": 1808,
      "issant": 1809,
      "Ġclothes": 1810,
      "Ġtiennent": 1811,
      "Ġinside": 1812,
      "ates": 1813,
      "Ġplusieurs": 1814,
      "Ġplanche": 1815,
      "neig": 1816,
      "Ġkitchen": 1817,
      "Ġothers": 1818,
      "Ġgymn": 1819,
      "ĠpÃª": 1820,
      "Ġgue": 1821,
      "cert": 1822,
      "ĠhabillÃ©": 1823,
      "Ġlivre": 1824,
      "ĠdÃ©bardeur": 1825,
      "Ġcellphone": 1826,
      "ool": 1827,
      "als": 1828,
      "Ġnight": 1829,
      "ican": 1830,
      "Ġbeige": 1831,
      "Ġpoin": 1832,
      "Ġmaking": 1833,
      "Ġgrassy": 1834,
      "ucture": 1835,
      "Ġstructure": 1836,
      "Ġlight": 1837,
      "uel": 1838,
      "ĠDe": 1839,
      "peaux": 1840,
      "Ġriver": 1841,
      "Ġrampe": 1842,
      "pack": 1843,
      "Ġsou": 1844,
      "Ġsell": 1845,
      "Ġpont": 1846,
      "Ġpus": 1847,
      "Ġbig": 1848,
      "Ġpolo": 1849,
      "Ġbonn": 1850,
      "Ġenneig": 1851,
      "vel": 1852,
      "Ġgrill": 1853,
      "Ġmari": 1854,
      "elles": 1855,
      "Ġbackpack": 1856,
      "Ġtravaillent": 1857,
      "Ġdessus": 1858,
      "ĠpiÃ¨ce": 1859,
      "Ġgueule": 1860,
      "bb": 1861,
      "fÃ©": 1862,
      "ini": 1863,
      "Ġlaugh": 1864,
      "room": 1865,
      "Ġboard": 1866,
      "eaux": 1867,
      "Ġbrick": 1868,
      "Ġtakes": 1869,
      "Ġmetal": 1870,
      "ĠriviÃ¨re": 1871,
      "Ġumbrella": 1872,
      "reau": 1873,
      "Ġsurroun": 1874,
      "Ġmange": 1875,
      "ooking": 1876,
      "Ġbleus": 1877,
      "gging": 1878,
      "Ġtowards": 1879,
      "Ġblanches": 1880,
      "Ġmotorcycle": 1881,
      "oying": 1882,
      "isse": 1883,
      "Ġfull": 1884,
      "Ġend": 1885,
      "acle": 1886,
      "raph": 1887,
      "Ġcond": 1888,
      "Ġpolic": 1889,
      "Ġouvriers": 1890,
      "ep": 1891,
      "rant": 1892,
      "heel": 1893,
      "erse": 1894,
      "Ġrocher": 1895,
      "ress": 1896,
      "Ġcouch": 1897,
      "Ġconcert": 1898,
      "Ġmusique": 1899,
      "Ġenjoying": 1900,
      "Ġsemble": 1901,
      "Ġtorse": 1902,
      "Ġplace": 1903,
      "Ġentour": 1904,
      "enfants": 1905,
      "ny": 1906,
      "aute": 1907,
      "verte": 1908,
      "ĠIn": 1909,
      "Ġcigarette": 1910,
      "ones": 1911,
      "Ġhi": 1912,
      "Ġpetits": 1913,
      "ĠfenÃªtre": 1914,
      "Ġinstrument": 1915,
      "Ġcycliste": 1916,
      "Ġfigure": 1917,
      "Åĵ": 1918,
      "icks": 1919,
      "Ġplus": 1920,
      "aves": 1921,
      "Ġviol": 1922,
      "ial": 1923,
      "Ġfis": 1924,
      "Ġfour": 1925,
      "Ġnage": 1926,
      "illÃ©e": 1927,
      "Ġord": 1928,
      "Ġoffic": 1929,
      "Ġpolice": 1930,
      "Ġready": 1931,
      "ote": 1932,
      "Ġsub": 1933,
      "Ġhard": 1934,
      "Ġstar": 1935,
      "Ġret": 1936,
      "Ġchaise": 1937,
      "Ġtank": 1938,
      "Ġpierre": 1939,
      "Ġcoun": 1940,
      "Ġclass": 1941,
      "Ġspectateurs": 1942,
      "Ġmaison": 1943,
      "Ġabo": 1944,
      "Ġtire": 1945,
      "Ġfri": 1946,
      "ĠvÃ©": 1947,
      "Ġparap": 1948,
      "ĠbalanÃ§": 1949,
      "ĠdÃ©f": 1950,
      "Ġdrum": 1951,
      "Ġcu": 1952,
      "aces": 1953,
      "Ġmarti": 1954,
      "shirts": 1955,
      "ĠCinq": 1956,
      "isson": 1957,
      "ĠFive": 1958,
      "Ġsweater": 1959,
      "Ġshopping": 1960,
      "Ġbowling": 1961,
      "iqu": 1962,
      "Ġbes": 1963,
      "Ġstud": 1964,
      "Ġpoint": 1965,
      "Ġpiece": 1966,
      "Ġpainting": 1967,
      "Ġutilise": 1968,
      "ĠChild": 1969,
      "Ġlake": 1970,
      "Ġtrick": 1971,
      "Ġmarches": 1972,
      "Ġappareil": 1973,
      "rican": 1974,
      "Ġparticip": 1975,
      "ĠclÃ´ture": 1976,
      "Ġpul": 1977,
      "iel": 1978,
      "ook": 1979,
      "Ġseveral": 1980,
      "ĠÃ©cl": 1981,
      "Ġpelouse": 1982,
      "Ġabove": 1983,
      "Ġparapl": 1984,
      "aw": 1985,
      "cks": 1986,
      "Ġstick": 1987,
      "Ġplat": 1988,
      "iving": 1989,
      "embr": 1990,
      "Ġobject": 1991,
      "Ġvolleyball": 1992,
      "Ġbonnet": 1993,
      "Ġav": 1994,
      "Ġdance": 1995,
      "reaux": 1996,
      "ars": 1997,
      "Ġfer": 1998,
      "Ġhors": 1999,
      "Ġstation": 2000,
      "Ġchari": 2001,
      "olesc": 2002,
      "ĠQuel": 2003,
      "Ġgoing": 2004,
      "Ġcorde": 2005,
      "ĠÃ©quipe": 2006,
      "Ġcowboy": 2007,
      "Ġcombin": 2008,
      "uter": 2009,
      "wing": 2010,
      "ĠAf": 2011,
      "Ġstone": 2012,
      "Ġkne": 2013,
      "Ġgilet": 2014,
      "aie": 2015,
      "Ġwheel": 2016,
      "Ġvit": 2017,
      "Ġmany": 2018,
      "Ġcolored": 2019,
      "Ġsnowy": 2020,
      "Ġobser": 2021,
      "Ġwave": 2022,
      "Ġzone": 2023,
      "uche": 2024,
      "ven": 2025,
      "Ã©ro": 2026,
      "jectif": 2027,
      "objectif": 2028,
      "Ġcombinais": 2029,
      "een": 2030,
      "og": 2031,
      "vÃ©": 2032,
      "Ġeux": 2033,
      "ĠfÃªte": 2034,
      "Ġonto": 2035,
      "Ġrel": 2036,
      "Ġscul": 2037,
      "Ġuniforms": 2038,
      "Ġsurrounded": 2039,
      "Ġrand": 2040,
      "Ġoranges": 2041,
      "Ġworker": 2042,
      "bor": 2043,
      "oon": 2044,
      "Ġdist": 2045,
      "Ġtur": 2046,
      "Ġban": 2047,
      "raÃ®": 2048,
      "Ġcoup": 2049,
      "Ġphot": 2050,
      "Ġglace": 2051,
      "Ġspr": 2052,
      "Ġexam": 2053,
      "ĠmÃ©tro": 2054,
      "Ġnetto": 2055,
      "ĠbalanÃ§oire": 2056,
      "Ġpays": 2057,
      "Ġmanger": 2058,
      "Ġtrad": 2059,
      "Ġpole": 2060,
      "Ġsmiles": 2061,
      "Ġappe": 2062,
      "Ã©ton": 2063,
      "Ġcrowded": 2064,
      "Ġobjet": 2065,
      "Ġadultes": 2066,
      "Ġvague": 2067,
      "\".": 2068,
      "Ġforest": 2069,
      "Ġposent": 2070,
      "Ġmontre": 2071,
      "Ġoutdoors": 2072,
      "Ġphotograph": 2073,
      "Ġbeside": 2074,
      "Ġphotos": 2075,
      "less": 2076,
      "nement": 2077,
      "tif": 2078,
      "ute": 2079,
      "Ġpanc": 2080,
      "Ġmult": 2081,
      "Ġhouse": 2082,
      "Ġgear": 2083,
      "Ġtodd": 2084,
      "Ġparking": 2085,
      "Ġprenant": 2086,
      "Ġsold": 2087,
      "Ġadults": 2088,
      "Ġphotograp": 2089,
      "Ġconversation": 2090,
      "men": 2091,
      "Ã«": 2092,
      "Ġelle": 2093,
      "Ġdire": 2094,
      "Ġsus": 2095,
      "ĠÃ©ch": 2096,
      "Ġsacs": 2097,
      "Ġsurfe": 2098,
      "Ġmilit": 2099,
      "Ġbikini": 2100,
      "ĠallongÃ©": 2101,
      "Ġdrinking": 2102,
      "ĠpÃªche": 2103,
      "Ġchariot": 2104,
      "ĠK": 2105,
      "Ġsup": 2106,
      "ists": 2107,
      "Ġlif": 2108,
      "Ġinter": 2109,
      "Ġath": 2110,
      "Ġsmo": 2111,
      "Ġregarder": 2112,
      "appr": 2113,
      "lÃ¨": 2114,
      "neau": 2115,
      "oÃ«": 2116,
      "Ġmemb": 2117,
      "Ġlot": 2118,
      "Ġrecou": 2119,
      "Ġfruits": 2120,
      "Ġcouleur": 2121,
      "Ġkay": 2122,
      "Ġphone": 2123,
      "Ġafter": 2124,
      "io": 2125,
      "ary": 2126,
      "Ġrain": 2127,
      "Ġgrim": 2128,
      "Ġplant": 2129,
      "Ġparlent": 2130,
      "Ġarbres": 2131,
      "ĠforÃªt": 2132,
      "ĠbÃ¢ton": 2133,
      "Ġset": 2134,
      "Ġtap": 2135,
      "Ġfountain": 2136,
      "icol": 2137,
      "Ġfrisbee": 2138,
      "Ġtrouve": 2139,
      "Ġbriques": 2140,
      "Ġpieds": 2141,
      "Ġgathered": 2142,
      "Ġroller": 2143,
      "tiful": 2144,
      "br": 2145,
      "ange": 2146,
      "Ġtas": 2147,
      "Ġbloc": 2148,
      "iens": 2149,
      "tud": 2150,
      "Ġevent": 2151,
      "Ġfamille": 2152,
      "Ġchaussures": 2153,
      "Ġhanging": 2154,
      "aking": 2155,
      "oop": 2156,
      "intÃ©rieur": 2157,
      "inateur": 2158,
      "Ġlanc": 2159,
      "ayant": 2160,
      "Ġpeint": 2161,
      "Ġdoor": 2162,
      "Ġchef": 2163,
      "Ġtrou": 2164,
      "Ġtrans": 2165,
      "ĠSix": 2166,
      "Ġadolesc": 2167,
      "Ġvoit": 2168,
      "Ġmicros": 2169,
      "Ġbridge": 2170,
      "Ġgraffiti": 2171,
      "Ġsubway": 2172,
      "Ġpancar": 2173,
      "Ġpa": 2174,
      "Ġpou": 2175,
      "Ġpil": 2176,
      "Ġfall": 2177,
      "Ġlance": 2178,
      "Ġgenou": 2179,
      "Ġleap": 2180,
      "els": 2181,
      "aires": 2182,
      "Ġcolline": 2183,
      "Ġarms": 2184,
      "Ġfamily": 2185,
      "Ġflowers": 2186,
      "Ġfriend": 2187,
      "ĠAfrican": 2188,
      "Ġmulticol": 2189,
      "sc": 2190,
      "Ġaway": 2191,
      "ĠlÃ©g": 2192,
      "Ġven": 2193,
      "Ġquai": 2194,
      "Ġey": 2195,
      "Ġskirt": 2196,
      "Ġcarri": 2197,
      "Ġbut": 2198,
      "Ġpassent": 2199,
      "athon": 2200,
      "Ġpreparing": 2201,
      "Ġsusp": 2202,
      "ime": 2203,
      "mi": 2204,
      "esp": 2205,
      "Ġpot": 2206,
      "Ġwin": 2207,
      "Ġfile": 2208,
      "ĠAmer": 2209,
      "owing": 2210,
      "Ġleaning": 2211,
      "ĠfrÃ©qu": 2212,
      "aged": 2213,
      "Ġtoddler": 2214,
      "ĠfrÃ©quent": 2215,
      "hair": 2216,
      "Ġhit": 2217,
      "Ã©o": 2218,
      "emp": 2219,
      "ieur": 2220,
      "amb": 2221,
      "Ġclown": 2222,
      "lder": 2223,
      "Ġcarreaux": 2224,
      "Ġverre": 2225,
      "Ġlongs": 2226,
      "Ġjaunes": 2227,
      "ĠMany": 2228,
      "Ġcanap": 2229,
      "oyen": 2230,
      "Ġprendre": 2231,
      "Ġbeautiful": 2232,
      "Ġsteps": 2233,
      "Ġsleeping": 2234,
      "Ġsil": 2235,
      "ours": 2236,
      "Ġdoes": 2237,
      "ables": 2238,
      "Ġmake": 2239,
      "Ġscoot": 2240,
      "Ġcasques": 2241,
      "Ġtake": 2242,
      "Ġvieux": 2243,
      "Ġfontaine": 2244,
      "Ġguys": 2245,
      "Ġplaid": 2246,
      "Ġfishing": 2247,
      "ois": 2248,
      "Ġty": 2249,
      "Ġrope": 2250,
      "Ġstro": 2251,
      "Ġparade": 2252,
      "ivid": 2253,
      "Ġteen": 2254,
      "Ġuniforme": 2255,
      "ĠmÃ©tall": 2256,
      "Ġshoes": 2257,
      "ĠChildren": 2258,
      "ĠcanapÃ©": 2259,
      "mon": 2260,
      "Ġbun": 2261,
      "Ġmou": 2262,
      "Ġmir": 2263,
      "Ġramp": 2264,
      "chant": 2265,
      "Ġaud": 2266,
      "Ġmarathon": 2267,
      "Ġtrail": 2268,
      "ĠenneigÃ©e": 2269,
      "Ġcombinaison": 2270,
      "Ġfol": 2271,
      "Ġgard": 2272,
      "ĠÃª": 2273,
      "Ġdoig": 2274,
      "ident": 2275,
      "ĠextÃ©rieur": 2276,
      "Ġensole": 2277,
      "Ġadult": 2278,
      "ĠcafÃ©": 2279,
      "Ġsculp": 2280,
      "bu": 2281,
      "iver": 2282,
      "Ġurb": 2283,
      "Ġpente": 2284,
      "ert": 2285,
      "Ġcup": 2286,
      "Ġfaute": 2287,
      "entle": 2288,
      "auche": 2289,
      "ical": 2290,
      "Ġpein": 2291,
      "Ġequ": 2292,
      "Ġnoires": 2293,
      "issons": 2294,
      "Ġbruns": 2295,
      "Ġasiatiques": 2296,
      "ĠÃªtre": 2297,
      "ume": 2298,
      "Ġdro": 2299,
      "Ġtous": 2300,
      "Ġlike": 2301,
      "Ġjus": 2302,
      "ashing": 2303,
      "icking": 2304,
      "Ġasian": 2305,
      "Ġparmi": 2306,
      "Ġsaut": 2307,
      "ives": 2308,
      "ivers": 2309,
      "ĠprÃ©pare": 2310,
      "ĠÃ©quip": 2311,
      "Ġbeaucoup": 2312,
      "Ġstairs": 2313,
      "Ġparapluie": 2314,
      "Ġfauteu": 2315,
      "rÃ©": 2316,
      "Ġsorte": 2317,
      "Ġhu": 2318,
      "Ġchar": 2319,
      "ching": 2320,
      "Ġroche": 2321,
      "issent": 2322,
      "Ġdiscut": 2323,
      "Ġgraffitis": 2324,
      "aise": 2325,
      "yant": 2326,
      "ĠdÃ©s": 2327,
      "Ġjet": 2328,
      "Ġvif": 2329,
      "Ġleg": 2330,
      "Ġrocks": 2331,
      "Ġshirtless": 2332,
      "Ġpract": 2333,
      "ival": 2334,
      "ycles": 2335,
      "Ġgolf": 2336,
      "Ġpomp": 2337,
      "Ġselling": 2338,
      "ersey": 2339,
      "ĠdÃ©fil": 2340,
      "ĠensoleillÃ©e": 2341,
      "Ġdont": 2342,
      "Ġsetting": 2343,
      "Ġtun": 2344,
      "Ġtall": 2345,
      "Ġbul": 2346,
      "onge": 2347,
      "Ġwr": 2348,
      "ird": 2349,
      "Ġjo": 2350,
      "Ġjersey": 2351,
      "Ġcoure": 2352,
      "Ġsky": 2353,
      "Ġalors": 2354,
      "Ġbleues": 2355,
      "ffic": 2356,
      "Ġquelqu": 2357,
      "Ġtravail": 2358,
      "Ġsunny": 2359,
      "Ġloin": 2360,
      "Ġpen": 2361,
      "Ġpav": 2362,
      "arf": 2363,
      "Ġloc": 2364,
      "Ġgentle": 2365,
      "alm": 2366,
      "uss": 2367,
      "Ġquatre": 2368,
      "Ġattendant": 2369,
      "Ġglass": 2370,
      "Ġslide": 2371,
      "Ġpapier": 2372,
      "Ġutilisant": 2373,
      "lers": 2374,
      "tures": 2375,
      "xim": 2376,
      "Ġbet": 2377,
      "Ġhar": 2378,
      "Ġracing": 2379,
      "Ġjust": 2380,
      "Ġsommet": 2381,
      "Ġattraper": 2382,
      "Ġview": 2383,
      "Ġgilets": 2384,
      "Ġgold": 2385,
      "nel": 2386,
      "Ġdin": 2387,
      "Ġputting": 2388,
      "Ġfore": 2389,
      "Ġlist": 2390,
      "Ġgu": 2391,
      "Ġont": 2392,
      "Ġdansent": 2393,
      "Ġnat": 2394,
      "Ġref": 2395,
      "Ġbouche": 2396,
      "Ġchairs": 2397,
      "Ġprofess": 2398,
      "ĠnumÃ©ro": 2399,
      "Ġequip": 2400,
      "cope": 2401,
      "lier": 2402,
      "umes": 2403,
      "Ġstop": 2404,
      "Ġchas": 2405,
      "iments": 2406,
      "Ġeffe": 2407,
      "phones": 2408,
      "Ġcorner": 2409,
      "Ġboth": 2410,
      "Ġthrowing": 2411,
      "Ġpushing": 2412,
      "ween": 2413,
      "Ġil": 2414,
      "Ġfix": 2415,
      "Ġhot": 2416,
      "Ġhave": 2417,
      "uritÃ©": 2418,
      "ally": 2419,
      "Ġrobes": 2420,
      "Ġposes": 2421,
      "Ġdrink": 2422,
      "ĠrÃ©c": 2423,
      "Ġescalier": 2424,
      "Ġnombreux": 2425,
      "Ġanimal": 2426,
      "Ġtables": 2427,
      "Ġattendent": 2428,
      "Ġbetween": 2429,
      "ces": 2430,
      "ĠbÃ©ton": 2431,
      "ĠlÃ¨": 2432,
      "ante": 2433,
      "oth": 2434,
      "Ġtoit": 2435,
      "Ġarts": 2436,
      "Ġclair": 2437,
      "Ġflip": 2438,
      "Ġprote": 2439,
      "ĠvÃªtues": 2440,
      "Ġadulte": 2441,
      "Ġrail": 2442,
      "Ġpied": 2443,
      "Ġpanneau": 2444,
      "Ġflower": 2445,
      "Ġfrapper": 2446,
      "Ġladies": 2447,
      "Ġlaughing": 2448,
      "Ġgenoux": 2449,
      "ĠAmerican": 2450,
      "Ġsqu": 2451,
      "Ġfish": 2452,
      "Ġins": 2453,
      "ormes": 2454,
      "Ġvide": 2455,
      "Ġnus": 2456,
      "chool": 2457,
      "Ġrod": 2458,
      "Ġbureau": 2459,
      "Ġsomeone": 2460,
      "Ġcomputer": 2461,
      "Ġjournal": 2462,
      "Ġcyclistes": 2463,
      "Ġouvrier": 2464,
      "Ġindivid": 2465,
      "Ġplastique": 2466,
      "Ġnews": 2467,
      "Ġequipment": 2468,
      "ane": 2469,
      "Ġsans": 2470,
      "Ġpres": 2471,
      "rete": 2472,
      "Ġhau": 2473,
      "Ã©d": 2474,
      "chers": 2475,
      "oph": 2476,
      "Ġshou": 2477,
      "Ġscen": 2478,
      "Ġproxim": 2479,
      "Ġairs": 2480,
      "Ġpictures": 2481,
      "Ġparty": 2482,
      "Ġpleine": 2483,
      "Ġpousse": 2484,
      "Ġvehic": 2485,
      "Ġdispl": 2486,
      "Ġrassembl": 2487,
      "ĠvÃ©hic": 2488,
      "ĠproximitÃ©": 2489,
      "ls": 2490,
      "Ġpile": 2491,
      "ings": 2492,
      "Ġmoyen": 2493,
      "Ġplayground": 2494,
      "Ġkiss": 2495,
      "Ġcamp": 2496,
      "ĠFr": 2497,
      "Ġsweatshirt": 2498,
      "Ġboute": 2499,
      "Ġwoods": 2500,
      "Ġplastic": 2501,
      "ĠdiffÃ©r": 2502,
      "af": 2503,
      "wn": 2504,
      "oute": 2505,
      "Ġreach": 2506,
      "Ġwhich": 2507,
      "ience": 2508,
      "Ġkar": 2509,
      "Ġattire": 2510,
      "Ġglo": 2511,
      "Ġpassant": 2512,
      "Ġconcrete": 2513,
      "ront": 2514,
      "rÃ©e": 2515,
      "Ġesp": 2516,
      "Ġbel": 2517,
      "erie": 2518,
      "Ġlisant": 2519,
      "Ġligne": 2520,
      "Ġdansant": 2521,
      "Ġdock": 2522,
      "Ġbuck": 2523,
      "ploy": 2524,
      "Ġposant": 2525,
      "Ġmotoc": 2526,
      "Ġcuisin": 2527,
      "Ġnumber": 2528,
      "Ġbeard": 2529,
      "Ġscooter": 2530,
      "fet": 2531,
      "vre": 2532,
      "Ġ3": 2533,
      "ĠsÃ©c": 2534,
      "Ġpad": 2535,
      "Ġtomb": 2536,
      "Ġbond": 2537,
      "arriÃ¨re": 2538,
      "Ġlum": 2539,
      "hed": 2540,
      "ators": 2541,
      "ili": 2542,
      "ems": 2543,
      "Ġyard": 2544,
      "Ġrochers": 2545,
      "Ġbed": 2546,
      "Ġcouver": 2547,
      "Ġcoin": 2548,
      "Ġattemp": 2549,
      "Ġmidair": 2550,
      "Ġspectacle": 2551,
      "Ġdrapeau": 2552,
      "Ġfeuilles": 2553,
      "ible": 2554,
      "Ġessayant": 2555,
      "Ġbreak": 2556,
      "Ġdistance": 2557,
      "Ġpancarte": 2558,
      "Ġwinter": 2559,
      "rine": 2560,
      "Ġavant": 2561,
      "Ġtat": 2562,
      "Ġciel": 2563,
      "Ġmer": 2564,
      "Ġeng": 2565,
      "acc": 2566,
      "chÃ©": 2567,
      "Ġportent": 2568,
      "ĠBl": 2569,
      "Ġtraverse": 2570,
      "ggles": 2571,
      "Ġmontagnes": 2572,
      "Ġmonte": 2573,
      "vÃ©nement": 2574,
      "Ġkayak": 2575,
      "Ġear": 2576,
      "Ġcur": 2577,
      "Ġmorc": 2578,
      "Ġfou": 2579,
      "Ġno": 2580,
      "rique": 2581,
      "ound": 2582,
      "Ġclasse": 2583,
      "Ġform": 2584,
      "Ġsautent": 2585,
      "Ġbikes": 2586,
      "ĠrÃ©un": 2587,
      "Ġmaillots": 2588,
      "con": 2589,
      "iÃ©": 2590,
      "Ġdort": 2591,
      "Ġsent": 2592,
      "Ġdep": 2593,
      "ows": 2594,
      "Ġshore": 2595,
      "Ġyeux": 2596,
      "Ã¢ge": 2597,
      "Ġchaises": 2598,
      "Ġveget": 2599,
      "ĠInd": 2600,
      "Ġmicroscope": 2601,
      "Ġvende": 2602,
      "ĠfrÃ©quentÃ©e": 2603,
      "ĠmÃ©tallique": 2604,
      "ĠdÃ©filÃ©": 2605,
      "ĠsÃ©curitÃ©": 2606,
      "Ġpelle": 2607,
      "Ġwe": 2608,
      "arm": 2609,
      "Ġfil": 2610,
      "Ġget": 2611,
      "Ġjard": 2612,
      "Ġvue": 2613,
      "Ġnav": 2614,
      "chest": 2615,
      "Ġseated": 2616,
      "ned": 2617,
      "Ġarr": 2618,
      "Ġsauter": 2619,
      "Ġgrosse": 2620,
      "Ġtoward": 2621,
      "Ġnombreuses": 2622,
      "Ġreads": 2623,
      "ĠpromÃ¨ne": 2624,
      "Ġjupe": 2625,
      "ĠfoncÃ©s": 2626,
      "Ġmangeant": 2627,
      "Ġdirection": 2628,
      "Ġtunnel": 2629,
      "aks": 2630,
      "hiver": 2631,
      "pap": 2632,
      "Ġach": 2633,
      "Ġtem": 2634,
      "Ġtourn": 2635,
      "ery": 2636,
      "ĠmÃ¨re": 2637,
      "Ġplate": 2638,
      "Ġleft": 2639,
      "ĠÃ©vÃ©nement": 2640,
      "ched": 2641,
      "Ã©sent": 2642,
      "Ġworks": 2643,
      "Ġsourient": 2644,
      "ĠcompÃ©t": 2645,
      "Ġenjoy": 2646,
      "Ġcream": 2647,
      "Ġtapis": 2648,
      "Ġlancer": 2649,
      "ail": 2650,
      "try": 2651,
      "Ã»": 2652,
      "ese": 2653,
      "ening": 2654,
      "ennent": 2655,
      "Ġpi": 2656,
      "Ġcutting": 2657,
      "Ġcooking": 2658,
      "Ġhapp": 2659,
      "Ġroo": 2660,
      "sel": 2661,
      "Ġwhat": 2662,
      "Ġprennent": 2663,
      "ĠÃ©tud": 2664,
      "Ġbeer": 2665,
      "endue": 2666,
      "ids": 2667,
      "ĠbiÃ¨re": 2668,
      "Ġchapeaux": 2669,
      "Ġquelques": 2670,
      "ĠÃ©crit": 2671,
      "Ġrepas": 2672,
      "Ġrempli": 2673,
      "Ġordinateur": 2674,
      "Ġfauteuil": 2675,
      "Ġinspe": 2676,
      "ĠrodÃ©o": 2677,
      "Ġdisplay": 2678,
      "Ġmotocross": 2679,
      "Ġtatou": 2680,
      "Ġjardin": 2681,
      "co": 2682,
      "pet": 2683,
      "uff": 2684,
      "Ġspl": 2685,
      "Ġschool": 2686,
      "Ġbelle": 2687,
      "arr": 2688,
      "ittle": 2689,
      "Ġincl": 2690,
      "ator": 2691,
      "Ġwhere": 2692,
      "ions": 2693,
      "Ġcheer": 2694,
      "Ġcliff": 2695,
      "ĠvÃ©los": 2696,
      "Ġbuildings": 2697,
      "ĠBoy": 2698,
      "aisse": 2699,
      "Ġpaint": 2700,
      "Ġbags": 2701,
      "Ġrider": 2702,
      "Ġvests": 2703,
      "Ġprodu": 2704,
      "Ġpulling": 2705,
      "Ġsmoking": 2706,
      "Ġnewspap": 2707,
      "ax": 2708,
      "Ġpench": 2709,
      "Ġfin": 2710,
      "Ġint": 2711,
      "Ġfruit": 2712,
      "Ġroulant": 2713,
      "ĠÃ©tant": 2714,
      "ides": 2715,
      "ĠLittle": 2716,
      "Ġcomme": 2717,
      "ĠdÃ©g": 2718,
      "Ġbatter": 2719,
      "ĠÃ©coute": 2720,
      "Ġuniformes": 2721,
      "Ġserv": 2722,
      "Ã©quipe": 2723,
      "ĠNe": 2724,
      "attoo": 2725,
      "Åĵu": 2726,
      "Ġvoitures": 2727,
      "Ġsculpture": 2728,
      "Ġsentier": 2729,
      "cade": 2730,
      "oi": 2731,
      "Ġtattoo": 2732,
      "Ġmom": 2733,
      "Ã©ra": 2734,
      "aste": 2735,
      "aud": 2736,
      "Ġtobo": 2737,
      "Ãªme": 2738,
      "Ġclose": 2739,
      "Ġbrune": 2740,
      "ĠSt": 2741,
      "Ã¢teau": 2742,
      "ggan": 2743,
      "ĠGirl": 2744,
      "ĠhabillÃ©e": 2745,
      "Ġpanier": 2746,
      "Ġbarbec": 2747,
      "Ġcircul": 2748,
      "Ġappears": 2749,
      "oÃ«l": 2750,
      "Ġpractic": 2751,
      "Ġwrest": 2752,
      "Ġdepuis": 2753,
      "ĠcompÃ©tition": 2754,
      "Ġtoboggan": 2755,
      "ians": 2756,
      "iding": 2757,
      "Ġcal": 2758,
      "Ġfest": 2759,
      "Ġplonge": 2760,
      "quet": 2761,
      "usement": 2762,
      "ĠÃ©lect": 2763,
      "Ġedge": 2764,
      "ights": 2765,
      "escope": 2766,
      "Ġblonds": 2767,
      "aki": 2768,
      "Ġmountains": 2769,
      "ĠNoÃ«l": 2770,
      "Ġblanket": 2771,
      "Ġcrossing": 2772,
      "Ġshowing": 2773,
      "Ġsnowboarder": 2774,
      "ĠlÃ©gumes": 2775,
      "ophone": 2776,
      "ĠFrisbee": 2777,
      "ker": 2778,
      "lÃ©": 2779,
      "Ġdonne": 2780,
      "ence": 2781,
      "Ġpau": 2782,
      "Ġtie": 2783,
      "Ġbare": 2784,
      "Ġfum": 2785,
      "Ġgauche": 2786,
      "Ã©rie": 2787,
      "ater": 2788,
      "oline": 2789,
      "Ġbubb": 2790,
      "Ġscarf": 2791,
      "Ġglisse": 2792,
      "ignant": 2793,
      "ĠBeau": 2794,
      "Ġoppos": 2795,
      "iÃ¨res": 2796,
      "Ġartist": 2797,
      "Ġtablier": 2798,
      "ffee": 2799,
      "ilibre": 2800,
      "ble": 2801,
      "ee": 2802,
      "mÃ©": 2803,
      "set": 2804,
      "read": 2805,
      "Ġfal": 2806,
      "Ġland": 2807,
      "Ġgaz": 2808,
      "Ġright": 2809,
      "Ġrug": 2810,
      "Ġcher": 2811,
      "Ġtramp": 2812,
      "Ġelect": 2813,
      "Ġfilled": 2814,
      "ients": 2815,
      "Ġsax": 2816,
      "Ġlongue": 2817,
      "Ġnearby": 2818,
      "Ġperforms": 2819,
      "Ġprem": 2820,
      "ĠWomen": 2821,
      "ĠÃ©clair": 2822,
      "Ġhorses": 2823,
      "Ġindividu": 2824,
      "Ġtrampoline": 2825,
      "look": 2826,
      "mand": 2827,
      "itionn": 2828,
      "Ġrap": 2829,
      "Ġjam": 2830,
      "Ġsec": 2831,
      "oss": 2832,
      "Ġcours": 2833,
      "Ġbuvant": 2834,
      "ĠPers": 2835,
      "Ġattach": 2836,
      "Ġapron": 2837,
      "ations": 2838,
      "Ġbarbu": 2839,
      "Ġboue": 2840,
      "Ġgoal": 2841,
      "Ġfew": 2842,
      "Ġchantant": 2843,
      "Ġdriving": 2844,
      "ĠÃ©pau": 2845,
      "ĠentourÃ©": 2846,
      "Ġrandonne": 2847,
      "Ġcarries": 2848,
      "Ġboule": 2849,
      "arbres": 2850,
      "its": 2851,
      "itant": 2852,
      "Ġrub": 2853,
      "ved": 2854,
      "Ġpluie": 2855,
      "Ġleaves": 2856,
      "ost": 2857,
      "Ġcouleurs": 2858,
      "Ġballons": 2859,
      "Ġbalanc": 2860,
      "ĠdÃ©cor": 2861,
      "Ġskateur": 2862,
      "Ġsurfer": 2863,
      "ĠrÃ©par": 2864,
      "Ġmagaz": 2865,
      "arious": 2866,
      "Ġfrappe": 2867,
      "Ġrelax": 2868,
      "Ġpaysage": 2869,
      "Ġfriends": 2870,
      "ran": 2871,
      "ract": 2872,
      "suit": 2873,
      "Ġpin": 2874,
      "Ġtu": 2875,
      "Ġba": 2876,
      "Ġbout": 2877,
      "Ġwrit": 2878,
      "Ġgants": 2879,
      "meub": 2880,
      "entes": 2881,
      "Ġboots": 2882,
      "Ġparked": 2883,
      "Ġcars": 2884,
      "Ġsmile": 2885,
      "Ġverts": 2886,
      "Ġbalcon": 2887,
      "ĠdÃ©c": 2888,
      "ĠdÃ©t": 2889,
      "Ġsnowbo": 2890,
      "Ġskateboarder": 2891,
      "Ġvieille": 2892,
      "Ġescalade": 2893,
      "Ġbottes": 2894,
      "Ġbottle": 2895,
      "Ġemploy": 2896,
      "Ġmartial": 2897,
      "apprÃªte": 2898,
      "Ġpilote": 2899,
      "Ġmorceau": 2900,
      "nic": 2901,
      "Ġpit": 2902,
      "Ġbro": 2903,
      "Ġhome": 2904,
      "Ġlap": 2905,
      "Ġgrise": 2906,
      "eling": 2907,
      "ĠÃ©che": 2908,
      "Ġsale": 2909,
      "ĠcÃ´te": 2910,
      "Ġappl": 2911,
      "Ġadvers": 2912,
      "Ġbattent": 2913,
      "ĠÃ¢gÃ©es": 2914,
      "Ġgoggles": 2915,
      "ĠcolorÃ©s": 2916,
      "ĠhabillÃ©s": 2917,
      "Ġartiste": 2918,
      "Ġdrapeaux": 2919,
      "Ġaccroup": 2920,
      "Ġlined": 2921,
      "Ġvendor": 2922,
      "Ġcountry": 2923,
      "Ġdoigt": 2924,
      "Ġrocheuse": 2925,
      "ĠvÃ©hicule": 2926,
      "Ġbarbecue": 2927,
      "bal": 2928,
      "oe": 2929,
      "vol": 2930,
      "Ġdame": 2931,
      "Ġpas": 2932,
      "Ġtime": 2933,
      "Ġcat": 2934,
      "Ġmud": 2935,
      "Ġfun": 2936,
      "itaire": 2937,
      "Ġhoop": 2938,
      "omp": 2939,
      "Ġois": 2940,
      "Ġgrav": 2941,
      "Ã¨res": 2942,
      "ager": 2943,
      "Ġpoteau": 2944,
      "rosse": 2945,
      "ĠcamÃ©ra": 2946,
      "Ġtalks": 2947,
      "Ġtraversent": 2948,
      "Ġrailing": 2949,
      "Ġpainted": 2950,
      "Ġsoft": 2951,
      "Ġproduits": 2952,
      "Ġdrums": 2953,
      "Ġtransport": 2954,
      "Ġsuspend": 2955,
      "Ġvehicle": 2956,
      "ĠBeaucoup": 2957,
      "Ġfalaise": 2958,
      "ĠPerson": 2959,
      "bl": 2960,
      "vis": 2961,
      "Ġbien": 2962,
      "Ġfra": 2963,
      "Ġlying": 2964,
      "Ã©p": 2965,
      "Ġshot": 2966,
      "ock": 2967,
      "Ġalley": 2968,
      "Ġflying": 2969,
      "ĠCon": 2970,
      "Ġcoffee": 2971,
      "Ġdresses": 2972,
      "Ġrocky": 2973,
      "Ġsuper": 2974,
      "Ġeyes": 2975,
      "Ġjogging": 2976,
      "min": 2977,
      "od": 2978,
      "ung": 2979,
      "Ġbull": 2980,
      "Ġcab": 2981,
      "oufl": 2982,
      "Ġwaves": 2983,
      "Ġmother": 2984,
      "Ġrang": 2985,
      "Ġjeux": 2986,
      "Ġchat": 2987,
      "Ġlay": 2988,
      "deo": 2989,
      "ops": 2990,
      "Ġfres": 2991,
      "Ġyounger": 2992,
      "Ġcouvert": 2993,
      "Ġorchest": 2994,
      "Ġsafet": 2995,
      "Ġkicking": 2996,
      "ouss": 2997,
      "Ġpetites": 2998,
      "Ġprot": 2999,
      "ighting": 3000,
      "ĠbÃ¢timents": 3001,
      "Ġbathing": 3002,
      "Ġjackets": 3003,
      "Ġsurface": 3004,
      "ĠGroup": 3005,
      "Ġswinging": 3006,
      "Ġsports": 3007,
      "Ġprepares": 3008,
      "Ġrassemblent": 3009,
      "Ġflags": 3010,
      "ĠprÃ©parant": 3011,
      "Ġgymnast": 3012,
      "embrass": 3013,
      "ĠQuelqu": 3014,
      "Ġgentleman": 3015,
      "Ġbouteille": 3016,
      "Ġroof": 3017,
      "Ġnewspaper": 3018,
      "Ġsnowboardeur": 3019,
      "Ġsafety": 3020,
      "Ġ1": 3021,
      "Ġdig": 3022,
      "Ġdorm": 3023,
      "erent": 3024,
      "onnÃ©e": 3025,
      "amÃ©ricain": 3026,
      "Ġseau": 3027,
      "Ġorient": 3028,
      "Ġkn": 3029,
      "aval": 3030,
      "Ġgrands": 3031,
      "Ġbicycl": 3032,
      "Ġspectators": 3033,
      "Ġempt": 3034,
      "attraper": 3035,
      "ĠfoncÃ©": 3036,
      "Ġmartiaux": 3037,
      "Ġtraditionn": 3038,
      "Ġsurfeur": 3039,
      "Ġpeinture": 3040,
      "Ġgloves": 3041,
      "Ġbucket": 3042,
      "ĠÃ©tudiant": 3043,
      "Ġpracticing": 3044,
      "Ġdonn": 3045,
      "Ġcad": 3046,
      "Ġcentre": 3047,
      "Ġhood": 3048,
      "Ã©ch": 3049,
      "Ġrac": 3050,
      "entraÃ®": 3051,
      "Ġonlook": 3052,
      "Ġblouse": 3053,
      "Ġshoot": 3054,
      "Ġparler": 3055,
      "Ġpeu": 3056,
      "Ġroses": 3057,
      "Ġthis": 3058,
      "Ġcourses": 3059,
      "Ġflot": 3060,
      "Ġsauv": 3061,
      "Ġexp": 3062,
      "Ġmusiciens": 3063,
      "Ġuses": 3064,
      "Ġimmeub": 3065,
      "Ġbiker": 3066,
      "Ġbearded": 3067,
      "Ġcleaning": 3068,
      "Ġladder": 3069,
      "Ġdifferent": 3070,
      "Ġcompetition": 3071,
      "Ġpolicier": 3072,
      "Ġbunch": 3073,
      "Ġlistening": 3074,
      "Ġvendeur": 3075,
      "Ġtemps": 3076,
      "rent": 3077,
      "iness": 3078,
      "Ġthere": 3079,
      "Ġcord": 3080,
      "Ġmix": 3081,
      "Ġfro": 3082,
      "Ġfils": 3083,
      "Ġsty": 3084,
      "Ġrece": 3085,
      "Ġparas": 3086,
      "ama": 3087,
      "amus": 3088,
      "ooded": 3089,
      "ula": 3090,
      "Ġitems": 3091,
      "Ġskateboarding": 3092,
      "Ġchevaux": 3093,
      "Ġafricain": 3094,
      "Ġmasque": 3095,
      "Ġcertain": 3096,
      "Ġstaring": 3097,
      "ĠQuelques": 3098,
      "Ġvitrine": 3099,
      "Ġscene": 3100,
      "Ġfestival": 3101,
      "cking": 3102,
      "ia": 3103,
      "looking": 3104,
      "mets": 3105,
      "esse": 3106,
      "Ġtau": 3107,
      "ret": 3108,
      "Ġhall": 3109,
      "Ġham": 3110,
      "Ġlire": 3111,
      "Ġgiving": 3112,
      "head": 3113,
      "Ġvarious": 3114,
      "Ġmangent": 3115,
      "Ġlawn": 3116,
      "Ġnouve": 3117,
      "Ġdesk": 3118,
      "agers": 3119,
      "Ġhold": 3120,
      "Ġballoon": 3121,
      "Ġvertes": 3122,
      "Ġterr": 3123,
      "Ġpasser": 3124,
      "Ġsurfboard": 3125,
      "Ġbicycles": 3126,
      "Ġchantier": 3127,
      "Ġcake": 3128,
      "Ġcapuche": 3129,
      "Ġafro": 3130,
      "Ġbowl": 3131,
      "Ġlog": 3132,
      "Ġcerc": 3133,
      "Ġmeal": 3134,
      "Ġstrol": 3135,
      "Ġaudience": 3136,
      "Ġcouverture": 3137,
      "Ġempty": 3138,
      "ken": 3139,
      "Ġayant": 3140,
      "Ġbur": 3141,
      "Ġwet": 3142,
      "ĠmÃªme": 3143,
      "Ġhum": 3144,
      "Ġress": 3145,
      "Ã¨ge": 3146,
      "Ġparach": 3147,
      "illant": 3148,
      "illage": 3149,
      "Ġrodeo": 3150,
      "agne": 3151,
      "Ġforme": 3152,
      "Ġcomple": 3153,
      "Ġbalance": 3154,
      "Ġlongues": 3155,
      "Ġbarre": 3156,
      "Ġamong": 3157,
      "Ġtraversant": 3158,
      "Ġdrinks": 3159,
      "ĠSomeone": 3160,
      "ĠprÃ©parent": 3161,
      "Ġviolon": 3162,
      "Ġleaps": 3163,
      "Ġtype": 3164,
      "Ġpenche": 3165,
      "ĠpavÃ©e": 3166,
      "ĠNew": 3167,
      "Ġsoftball": 3168,
      "Ġonlookers": 3169,
      "Ġact": 3170,
      "Ġsu": 3171,
      "ĠpÃ¨re": 3172,
      "Ġpian": 3173,
      "Ġber": 3174,
      "Ġwed": 3175,
      "Ġlieu": 3176,
      "Ġchin": 3177,
      "ower": 3178,
      "illÃ©": 3179,
      "Ġcoupe": 3180,
      "ĠCette": 3181,
      "Ġouverte": 3182,
      "Ġobst": 3183,
      "Ġsliding": 3184,
      "llement": 3185,
      "Ġcollier": 3186,
      "ĠÃ©tendue": 3187,
      "Ã©rÃ©": 3188,
      "Ġgathering": 3189,
      "ized": 3190,
      "Ġappr": 3191,
      "Ġpointing": 3192,
      "Ġplatform": 3193,
      "Ġfilet": 3194,
      "Ġsilver": 3195,
      "Ġvegetables": 3196,
      "bat": 3197,
      "ctu": 3198,
      "fore": 3199,
      "ging": 3200,
      "yard": 3201,
      "Ġdi": 3202,
      "Ġdou": 3203,
      "Ġpave": 3204,
      "Ġtalk": 3205,
      "Ġben": 3206,
      "Ġcement": 3207,
      "isent": 3208,
      "Ġfacing": 3209,
      "ital": 3210,
      "Ġmanches": 3211,
      "Ġstra": 3212,
      "allow": 3213,
      "Ã§ant": 3214,
      "Ġargent": 3215,
      "Ġstreets": 3216,
      "Ġskis": 3217,
      "Ġskieur": 3218,
      "indre": 3219,
      "Ġattent": 3220,
      "Ġcanne": 3221,
      "ĠÃ¢gÃ©s": 3222,
      "Ġfeet": 3223,
      "Ġsuits": 3224,
      "Ġdessin": 3225,
      "Ġdiscuss": 3226,
      "ĠmatÃ©rie": 3227,
      "Ġcounter": 3228,
      "Ġexamin": 3229,
      "Ġbulles": 3230,
      "Ġespace": 3231,
      "ĠIndian": 3232,
      "Ġsaxophone": 3233,
      "Ġpremier": 3234,
      "ĠmatÃ©riel": 3235,
      "dium": 3236,
      "ns": 3237,
      "sse": 3238,
      "Ġtiss": 3239,
      "Ġbon": 3240,
      "Ġbird": 3241,
      "Ġinst": 3242,
      "ush": 3243,
      "Ġbefore": 3244,
      "Ġwaters": 3245,
      "ifs": 3246,
      "Ġneck": 3247,
      "Ġcarn": 3248,
      "Ġpodium": 3249,
      "Ġcoiff": 3250,
      "Ġbath": 3251,
      "Ġbusiness": 3252,
      "Ġspeaking": 3253,
      "Ġhelmets": 3254,
      "Ġbandan": 3255,
      "Ġescalad": 3256,
      "ĠrayÃ©e": 3257,
      "Ġdescendant": 3258,
      "Ġrivage": 3259,
      "Ġpeluche": 3260,
      "Ġpoussette": 3261,
      "Ġcompeting": 3262,
      "Ġtradition": 3263,
      "Ġphotographe": 3264,
      "Ġadolescent": 3265,
      "Ġeffectu": 3266,
      "Ġfoul": 3267,
      "Ġwedding": 3268,
      "mas": 3269,
      "pes": 3270,
      "pant": 3271,
      "Ġsemb": 3272,
      "Ġmed": 3273,
      "Ġfing": 3274,
      "Ġhula": 3275,
      "Ġgro": 3276,
      "Ġgets": 3277,
      "ĠgÃ¢teau": 3278,
      "Ã©ri": 3279,
      "Ġren": 3280,
      "atique": 3281,
      "Ġlapt": 3282,
      "Ġnot": 3283,
      "ols": 3284,
      "Ġgarb": 3285,
      "Ġroule": 3286,
      "agent": 3287,
      "ades": 3288,
      "Ġskier": 3289,
      "Ġpoisson": 3290,
      "Ġkick": 3291,
      "Ã©lo": 3292,
      "Ġsombre": 3293,
      "Ġcoming": 3294,
      "Ġcamoufl": 3295,
      "ĠÃ©cout": 3296,
      "Ġbride": 3297,
      "Ġmotor": 3298,
      "Ġperformance": 3299,
      "Ġsalon": 3300,
      "Ġteams": 3301,
      "Ġshovel": 3302,
      "Ġtirant": 3303,
      "Ġmask": 3304,
      "Ġremplie": 3305,
      "Ġvagues": 3306,
      "Ġclassroom": 3307,
      "Ġdroite": 3308,
      "Ġhuge": 3309,
      "Ġdiscutent": 3310,
      "Ġpompiers": 3311,
      "ĠdiffÃ©rentes": 3312,
      "Ġbatterie": 3313,
      "ĠÃ©chelle": 3314,
      "Ġpiano": 3315,
      "Ġobstacle": 3316,
      "Ġcamouflage": 3317,
      "th": 3318,
      "toir": 3319,
      "Ġelles": 3320,
      "Ġpalm": 3321,
      "Ġtub": 3322,
      "oust": 3323,
      "Ġmin": 3324,
      "itre": 3325,
      "Ġdev": 3326,
      "Ġrit": 3327,
      "Ġvendant": 3328,
      "roit": 3329,
      "adeau": 3330,
      "Ġsurfing": 3331,
      "Ġclimbs": 3332,
      "Ġsings": 3333,
      "Ġpurse": 3334,
      "Ġpromen": 3335,
      "Ġrollers": 3336,
      "ĠallongÃ©e": 3337,
      "Ġappro": 3338,
      "Ġtries": 3339,
      "Ġstudents": 3340,
      "Ġprofessionn": 3341,
      "Ġtraditional": 3342,
      "back": 3343,
      "case": 3344,
      "fe": 3345,
      "iette": 3346,
      "nique": 3347,
      "rist": 3348,
      "zz": 3349,
      "Ġaffic": 3350,
      "Ġtom": 3351,
      "Ġtong": 3352,
      "Ġcrou": 3353,
      "Ġmouve": 3354,
      "Ġoc": 3355,
      "rape": 3356,
      "Ġboissons": 3357,
      "ider": 3358,
      "Ġmarcher": 3359,
      "Ġcommer": 3360,
      "ĠdÃ©pl": 3361,
      "Ġcascade": 3362,
      "Ġheure": 3363,
      "ips": 3364,
      "Ġexc": 3365,
      "Ġcomptoir": 3366,
      "Ġpatin": 3367,
      "ĠÃ©quilibre": 3368,
      "Ġaccord": 3369,
      "Ġviolette": 3370,
      "Ġessaie": 3371,
      "Ġcrav": 3372,
      "Ġviolin": 3373,
      "Ġmilitary": 3374,
      "Ġchasing": 3375,
      "Ġkissing": 3376,
      "Ġpause": 3377,
      "Ġimmeuble": 3378,
      "jus": 3379,
      "Ġsix": 3380,
      "Ġpri": 3381,
      "ĠcÃ¢": 3382,
      "Ġcinq": 3383,
      "ouette": 3384,
      "Ġfighting": 3385,
      "ores": 3386,
      "Ġlaisse": 3387,
      "Ġcheck": 3388,
      "Ġclou": 3389,
      "Ġtrun": 3390,
      "Ġtric": 3391,
      "Ġcoucher": 3392,
      "Ġsame": 3393,
      "Ġswee": 3394,
      "Ġscreen": 3395,
      "Ġcolle": 3396,
      "Ġpartie": 3397,
      "Ġtraverser": 3398,
      "Ġwalkway": 3399,
      "Ġrepos": 3400,
      "Ġspray": 3401,
      "ĠÃ©char": 3402,
      "Ġrecouverte": 3403,
      "Ġelectric": 3404,
      "Ġtaureau": 3405,
      "Ġterrasse": 3406,
      "Ġstroller": 3407,
      "cting": 3408,
      "mar": 3409,
      "nÃ©": 3410,
      "za": 3411,
      "Ġsite": 3412,
      "Ġpup": 3413,
      "Ġbad": 3414,
      "Ġcand": 3415,
      "Ġdecor": 3416,
      "Ġgun": 3417,
      "Ġgon": 3418,
      "Ġgest": 3419,
      "Ġenter": 3420,
      "Ġsurpl": 3421,
      "Ġmanif": 3422,
      "Ġlaun": 3423,
      "Ġfemales": 3424,
      "ied": 3425,
      "rier": 3426,
      "ienne": 3427,
      "Ġclients": 3428,
      "Ġtableau": 3429,
      "Ġfootbal": 3430,
      "Ġposition": 3431,
      "part": 3432,
      "Ġsunset": 3433,
      "ĠOn": 3434,
      "Ġmusical": 3435,
      "Ġwaits": 3436,
      "Ġbott": 3437,
      "ustom": 3438,
      "ĠanimÃ©e": 3439,
      "Ġkneeling": 3440,
      "Ġshoulder": 3441,
      "Ġmoment": 3442,
      "Ġwriting": 3443,
      "ait": 3444,
      "cas": 3445,
      "jets": 3446,
      "line": 3447,
      "Ġdivers": 3448,
      "Ġwrap": 3449,
      "Ġwaving": 3450,
      "Ġfond": 3451,
      "Ġindo": 3452,
      "Ġrow": 3453,
      "ande": 3454,
      "Ġlabor": 3455,
      "Ġrec": 3456,
      "ĠboÃ®": 3457,
      "Ġboisson": 3458,
      "abouss": 3459,
      "ocks": 3460,
      "Ġbran": 3461,
      "Ġrunner": 3462,
      "Ġacoust": 3463,
      "Ġexpos": 3464,
      "Ġsigns": 3465,
      "Ġrepr": 3466,
      "Ġcombat": 3467,
      "Ġmariage": 3468,
      "Ġpoliciers": 3469,
      "Ġmirr": 3470,
      "Ġpresent": 3471,
      "Ġattempting": 3472,
      "Ġbaref": 3473,
      "Ġrugby": 3474,
      "ristmas": 3475,
      "ape": 3476,
      "oons": 3477,
      "Ġdir": 3478,
      "ĠsiÃ¨": 3479,
      "eng": 3480,
      "Ġtasse": 3481,
      "Ġcro": 3482,
      "Ġcau": 3483,
      "Ġciment": 3484,
      "Ġenv": 3485,
      "Ġvole": 3486,
      "Ġlab": 3487,
      "Ġnap": 3488,
      "ici": 3489,
      "Ġseen": 3490,
      "Ġclub": 3491,
      "Ġmakes": 3492,
      "Ġprojet": 3493,
      "Ġattrape": 3494,
      "Ġadm": 3495,
      "Ġmontrant": 3496,
      "ĠÃ©cran": 3497,
      "ĠcolorÃ©": 3498,
      "Ġenth": 3499,
      "Ġchauve": 3500,
      "ĠÃ©tr": 3501,
      "Ġaccro": 3502,
      "Ġoutfits": 3503,
      "ĠmariÃ©e": 3504,
      "Ġavoir": 3505,
      "Ġlife": 3506,
      "Ġmiroir": 3507,
      "ĠÃ©quipes": 3508,
      "Ġprotest": 3509,
      "Ġcordes": 3510,
      "Ġmanifest": 3511,
      "band": 3512,
      "vie": 3513,
      "Ġdents": 3514,
      "Ġsays": 3515,
      "Ġpige": 3516,
      "lebr": 3517,
      "Ġmess": 3518,
      "Ġmuse": 3519,
      "Ġfur": 3520,
      "Ġfleur": 3521,
      "Ġore": 3522,
      "Ġvient": 3523,
      "Ġblowing": 3524,
      "Ġchain": 3525,
      "rair": 3526,
      "Ġrousse": 3527,
      "Ġjoueuse": 3528,
      "ĠSm": 3529,
      "Ġadvert": 3530,
      "Ġoverlooking": 3531,
      "Ġautom": 3532,
      "Ġvoie": 3533,
      "Ġamis": 3534,
      "ĠWork": 3535,
      "ĠYork": 3536,
      "Ġimp": 3537,
      "inese": 3538,
      "Ġpromenant": 3539,
      "Ġcelebr": 3540,
      "Ġofficer": 3541,
      "Ġobserve": 3542,
      "ĠrandonnÃ©e": 3543,
      "Ġurban": 3544,
      "ĠrassemblÃ©es": 3545,
      "Ġbubbles": 3546,
      "Ġcravate": 3547,
      "Ġmirror": 3548,
      "fs": 3549,
      "rer": 3550,
      "Ġ5": 3551,
      "Ġpy": 3552,
      "Ġcard": 3553,
      "Ġcut": 3554,
      "Ġwag": 3555,
      "Ġmeat": 3556,
      "Ġfab": 3557,
      "Ġfather": 3558,
      "Ġhole": 3559,
      "Ġlights": 3560,
      "Ġring": 3561,
      "Ġenc": 3562,
      "Ġjoy": 3563,
      "Ġstun": 3564,
      "Ġleans": 3565,
      "Ġballoons": 3566,
      "Ġskating": 3567,
      "Ġbald": 3568,
      "lymp": 3569,
      "onsieur": 3570,
      "escalade": 3571,
      "Ġagenou": 3572,
      "Ġprepare": 3573,
      "ĠEn": 3574,
      "Ġconduit": 3575,
      "Ġcuir": 3576,
      "Ġrecouvert": 3577,
      "Ġfoll": 3578,
      "Ġcoureur": 3579,
      "Ġcoureurs": 3580,
      "Ġharn": 3581,
      "Ġfixing": 3582,
      "Ġnavig": 3583,
      "ĠpiÃ©t": 3584,
      "Ġhappy": 3585,
      "ĠÃ©lectrique": 3586,
      "Ġfoulard": 3587,
      "Ġaffiche": 3588,
      "rairie": 3589,
      "Ġadvertis": 3590,
      "ames": 3591,
      "pom": 3592,
      "Ãł": 3593,
      "Ġsi": 3594,
      "Ġsled": 3595,
      "Ġpu": 3596,
      "Ġtend": 3597,
      "Ġtuy": 3598,
      "Ġcent": 3599,
      "Ġfive": 3600,
      "Ġfaces": 3601,
      "Ġhor": 3602,
      "ĠgÃ©": 3603,
      "Ġjockey": 3604,
      "Ġleather": 3605,
      "Ġjouets": 3606,
      "Ġtronc": 3607,
      "Ġmaqu": 3608,
      "Ġalone": 3609,
      "Ġchemis": 3610,
      "Ġexpl": 3611,
      "Ġpassage": 3612,
      "ĠWh": 3613,
      "Ġhelping": 3614,
      "Ġoper": 3615,
      "Ġmusicians": 3616,
      "Ġescalator": 3617,
      "Ġcollar": 3618,
      "ĠmÃ©tal": 3619,
      "Ġbrightly": 3620,
      "Ġumbrellas": 3621,
      "Ġsouff": 3622,
      "Ġforeground": 3623,
      "Ġprotection": 3624,
      "ĠdÃ©guis": 3625,
      "ĠConstruction": 3626,
      "ĠÃ©charpe": 3627,
      "ĠreprÃ©sent": 3628,
      "cial": 3629,
      "forme": 3630,
      "lles": 3631,
      "ners": 3632,
      "ward": 3633,
      "Ġ4": 3634,
      "Ġdread": 3635,
      "Ġsoir": 3636,
      "Ġbass": 3637,
      "Ġwell": 3638,
      "iser": 3639,
      "ĠmÃ©d": 3640,
      "Ġmonsieur": 3641,
      "Ġgre": 3642,
      "Ġgood": 3643,
      "Ġgiant": 3644,
      "Ġinc": 3645,
      "ory": 3646,
      "Ġvive": 3647,
      "Ġstad": 3648,
      "ics": 3649,
      "chair": 3650,
      "Ġaslee": 3651,
      "Ġparoi": 3652,
      "Ġgarage": 3653,
      "Ġmade": 3654,
      "Ġwaterf": 3655,
      "Ġproject": 3656,
      "Ġheav": 3657,
      "Ġtaille": 3658,
      "ĠBM": 3659,
      "Ġcanoe": 3660,
      "Ġmotard": 3661,
      "uisse": 3662,
      "Ġheadphones": 3663,
      "Ġcontain": 3664,
      "Ġimage": 3665,
      "Ġvestes": 3666,
      "Ġappuy": 3667,
      "Ġendorm": 3668,
      "Ġmembres": 3669,
      "Ġjuste": 3670,
      "Ġlegs": 3671,
      "ĠlÃ¨ve": 3672,
      "Ġmagazine": 3673,
      "Ġoiseau": 3674,
      "Ġsauvet": 3675,
      "Ġsurplomb": 3676,
      "Ġchemisier": 3677,
      "Ġasleep": 3678,
      "bitre": 3679,
      "nant": 3680,
      "Ġdor": 3681,
      "Ġdiving": 3682,
      "ense": 3683,
      "Ġpor": 3684,
      "Ġcaval": 3685,
      "ĠcÃ©rÃ©": 3686,
      "Ġcustom": 3687,
      "Ġwashing": 3688,
      "Ġhur": 3689,
      "Ã©on": 3690,
      "Ġjette": 3691,
      "aster": 3692,
      "Ġstade": 3693,
      "Ġsticks": 3694,
      "Ġchur": 3695,
      "opes": 3696,
      "Ġseul": 3697,
      "Ġwears": 3698,
      "Ġtrash": 3699,
      "Ġcons": 3700,
      "Ġconstru": 3701,
      "Ġacro": 3702,
      "ignent": 3703,
      "Ġoffice": 3704,
      "Ġpassing": 3705,
      "Ġsandals": 3706,
      "Ġrepair": 3707,
      "Ġdrawing": 3708,
      "Ġswings": 3709,
      "Ġpierres": 3710,
      "Ġcondu": 3711,
      "ĠÃ©clabouss": 3712,
      "Ġavion": 3713,
      "ĠathlÃ¨": 3714,
      "apprÃª": 3715,
      "Ġdoorway": 3716,
      "Ġdiscutant": 3717,
      "ĠdÃ©sert": 3718,
      "Ġlocal": 3719,
      "ĠÃ©couteurs": 3720,
      "Ġsuspendu": 3721,
      "ĠapprÃ©c": 3722,
      "Ġinstall": 3723,
      "Ġgrocer": 3724,
      "Ġpromenade": 3725,
      "Ġgonfl": 3726,
      "Ġwagon": 3727,
      "Ġstadium": 3728,
      "cing": 3729,
      "eur": 3730,
      "osed": 3731,
      "ten": 3732,
      "vÃ©e": 3733,
      "Ġsim": 3734,
      "Ġprairie": 3735,
      "erc": 3736,
      "Ġway": 3737,
      "Ġras": 3738,
      "Ġjong": 3739,
      "ĠmanÃ¨ge": 3740,
      "Ġstuff": 3741,
      "estri": 3742,
      "Ġquart": 3743,
      "umb": 3744,
      "ument": 3745,
      "Ġcourts": 3746,
      "Ġsav": 3747,
      "Ġheads": 3748,
      "Ġsandw": 3749,
      "Ġsandales": 3750,
      "Ġprofonde": 3751,
      "Ġtoys": 3752,
      "Ġofficers": 3753,
      "Ġexamine": 3754,
      "Ġathle": 3755,
      "Ġfalling": 3756,
      "Ġmulticolored": 3757,
      "Ġjusqu": 3758,
      "Ġpadd": 3759,
      "Ġinclu": 3760,
      "Ġorchestre": 3761,
      "cup": 3762,
      "locks": 3763,
      "vres": 3764,
      "Ġident": 3765,
      "Ġaqu": 3766,
      "Ġaction": 3767,
      "Ġpne": 3768,
      "ony": 3769,
      "Ġcit": 3770,
      "Ġcot": 3771,
      "arts": 3772,
      "Ġfan": 3773,
      "Ġfume": 3774,
      "eth": 3775,
      "med": 3776,
      "atoire": 3777,
      "Ġjol": 3778,
      "Ġleash": 3779,
      "Ã¨nent": 3780,
      "Ġboit": 3781,
      "Ġbooth": 3782,
      "Ġtraffic": 3783,
      "Ġarri": 3784,
      "Ġruelle": 3785,
      "Ġtape": 3786,
      "Ġpost": 3787,
      "aded": 3788,
      "Ġpicking": 3789,
      "Ġviande": 3790,
      "ĠhabillÃ©es": 3791,
      "Ġswims": 3792,
      "Ġdirty": 3793,
      "glise": 3794,
      "aughter": 3795,
      "Ġthrows": 3796,
      "Ġskiing": 3797,
      "ached": 3798,
      "Ġphotographer": 3799,
      "Ġteenage": 3800,
      "Ġvideo": 3801,
      "Ġreaching": 3802,
      "Ġachet": 3803,
      "ĠÃ©paules": 3804,
      "Ġtube": 3805,
      "ungle": 3806,
      "Ġlaptop": 3807,
      "Ġaccordion": 3808,
      "Ġbarefoot": 3809,
      "Ġchurch": 3810,
      "kers": 3811,
      "light": 3812,
      "py": 3813,
      "pital": 3814,
      "Ã¯": 3815,
      "Ġpond": 3816,
      "Ġtag": 3817,
      "Ġwar": 3818,
      "Ġmales": 3819,
      "Ġfeat": 3820,
      "ĠlÃ©": 3821,
      "orque": 3822,
      "veling": 3823,
      "Ġvir": 3824,
      "Ġreb": 3825,
      "chent": 3826,
      "Ġshallow": 3827,
      "acks": 3828,
      "Ġeat": 3829,
      "Ġkaki": 3830,
      "ivent": 3831,
      "Ġbatte": 3832,
      "Ġobjets": 3833,
      "affront": 3834,
      "iÃ¨me": 3835,
      "Ġsouriante": 3836,
      "Ġfigures": 3837,
      "Ġpoussant": 3838,
      "Ġclean": 3839,
      "lettes": 3840,
      "Ġhiking": 3841,
      "Ġplantes": 3842,
      "Ġprotect": 3843,
      "Ġbelow": 3844,
      "Ġdigging": 3845,
      "Ġoriental": 3846,
      "Ġstraw": 3847,
      "Ġeffectuant": 3848,
      "Ġlaund": 3849,
      "Ġquartier": 3850,
      "oh": 3851,
      "ĠÅĵu": 3852,
      "ena": 3853,
      "Ġpag": 3854,
      "Ġpasses": 3855,
      "Ġtack": 3856,
      "Ġbill": 3857,
      "lead": 3858,
      "arbre": 3859,
      "Ġfans": 3860,
      "Ġliqu": 3861,
      "Ġgives": 3862,
      "Ġrues": 3863,
      "Ġense": 3864,
      "atÃ©": 3865,
      "Ġvan": 3866,
      "ashes": 3867,
      "quer": 3868,
      "quettes": 3869,
      "rade": 3870,
      "alls": 3871,
      "Ġatop": 3872,
      "Ġpeut": 3873,
      "Ġseule": 3874,
      "ulant": 3875,
      "ĠÃ©n": 3876,
      "lders": 3877,
      "Ġkh": 3878,
      "Ġupside": 3879,
      "Ġglac": 3880,
      "Ġtax": 3881,
      "ĠbarriÃ¨re": 3882,
      "Ġbrunette": 3883,
      "ĠcanoÃ«": 3884,
      "dog": 3885,
      "Ġcloth": 3886,
      "Ġraquette": 3887,
      "Ġcorn": 3888,
      "Ġmove": 3889,
      "uddle": 3890,
      "Ġcatches": 3891,
      "Ġcatching": 3892,
      "Ġbooks": 3893,
      "Ġsilh": 3894,
      "monie": 3895,
      "Ġgarden": 3896,
      "Ġhugging": 3897,
      "Ġinspect": 3898,
      "Ġrelaxing": 3899,
      "vision": 3900,
      "Ġmouvement": 3901,
      "ĠreprÃ©sentant": 3902,
      "Ġdreadlocks": 3903,
      "Ġsurplombant": 3904,
      "Ġacrobat": 3905,
      "dre": 3906,
      "kin": 3907,
      "lo": 3908,
      "oise": 3909,
      "slee": 3910,
      "Ġ(": 3911,
      "Ġeau": 3912,
      "Ġkey": 3913,
      "Ġsigne": 3914,
      "Ġtel": 3915,
      "iting": 3916,
      "iron": 3917,
      "Ġruisse": 3918,
      "Ġva": 3919,
      "Ġvac": 3920,
      "Ġblous": 3921,
      "Ġdesert": 3922,
      "Ġped": 3923,
      "Ãªtes": 3924,
      "assant": 3925,
      "Ġele": 3926,
      "Ġeven": 3927,
      "Ġcourir": 3928,
      "Ġballs": 3929,
      "oney": 3930,
      "stand": 3931,
      "Ġbutt": 3932,
      "Ġbask": 3933,
      "Ġconf": 3934,
      "Ġcommen": 3935,
      "Ġprop": 3936,
      "Ġbalust": 3937,
      "ĠbÃ¢tons": 3938,
      "ricket": 3939,
      "Ġdancers": 3940,
      "Ġremorque": 3941,
      "ĠChristmas": 3942,
      "ĠChinese": 3943,
      "Ġshows": 3944,
      "Ġsleeps": 3945,
      "Ġpoints": 3946,
      "Ġendroit": 3947,
      "ersection": 3948,
      "Ġparticipant": 3949,
      "Ġsprink": 3950,
      "Ġgrimpe": 3951,
      "Ġpoub": 3952,
      "Ġleaping": 3953,
      "Ġmulticolore": 3954,
      "Ġgolden": 3955,
      "ĠrÃ©unis": 3956,
      "Ġsupermar": 3957,
      "Ġdonnant": 3958,
      "Ġsweeping": 3959,
      "Ġlaboratoire": 3960,
      "Ġstunt": 3961,
      "Ġtuyau": 3962,
      "ĠBMX": 3963,
      "Ġsauvetage": 3964,
      "Ġsandwich": 3965,
      "Ġvirage": 3966,
      "aide": 3967,
      "na": 3968,
      "work": 3969,
      "Ġdaughter": 3970,
      "Ġsy": 3971,
      "Ġpill": 3972,
      "ering": 3973,
      "Ġcaisse": 3974,
      "Ġuns": 3975,
      "red": 3976,
      "Ġfo": 3977,
      "itor": 3978,
      "Ġhose": 3979,
      "ative": 3980,
      "Ġplants": 3981,
      "rait": 3982,
      "Ġboun": 3983,
      "ited": 3984,
      "iller": 3985,
      "Ġquad": 3986,
      "Ġfair": 3987,
      "ĠfaÃ§": 3988,
      "Ġext": 3989,
      "ctue": 3990,
      "Ġstret": 3991,
      "Ġstream": 3992,
      "Ġballer": 3993,
      "Ġaliment": 3994,
      "Ġflies": 3995,
      "Ġcomm": 3996,
      "Ġscaff": 3997,
      "Ġteeth": 3998,
      "Ġtoutes": 3999,
      "Ġresting": 4000,
      "ĠallÃ©e": 4001,
      "Ġpatio": 4002,
      "ĠcolorÃ©e": 4003,
      "ĠbordÃ©e": 4004,
      "ĠGuy": 4005,
      "ĠtÃ©lescope": 4006,
      "Ġtravailler": 4007,
      "Ġsinger": 4008,
      "Ġcafe": 4009,
      "Ġrepose": 4010,
      "Ġcoats": 4011,
      "Ġstring": 4012,
      "Ġrassemble": 4013,
      "Ġconversing": 4014,
      "Ġpulls": 4015,
      "Ġnageant": 4016,
      "Ġferm": 4017,
      "Ġadolescents": 4018,
      "ĠkaratÃ©": 4019,
      "ĠBlack": 4020,
      "Ġfumant": 4021,
      "Ġaccroupi": 4022,
      "ĠrangÃ©e": 4023,
      "Ġhoodie": 4024,
      "Ġhammer": 4025,
      "Ġparachute": 4026,
      "Ġtrunks": 4027,
      "ĠboÃ®te": 4028,
      "Ġsieste": 4029,
      "ĠcÃ©rÃ©monie": 4030,
      "ĠÃ©norme": 4031,
      "Ġbaskette": 4032,
      "Ġscaffol": 4033,
      "lin": 4034,
      "oes": 4035,
      "pan": 4036,
      "wards": 4037,
      "Ġembr": 4038,
      "ina": 4039,
      "Ġdune": 4040,
      "ĠsÃ©": 4041,
      "Ġpout": 4042,
      "Ġpique": 4043,
      "Ġtown": 4044,
      "Ġbol": 4045,
      "ered": 4046,
      "Ġcette": 4047,
      "Ġcricket": 4048,
      "aring": 4049,
      "ites": 4050,
      "Ġhow": 4051,
      "Ġhear": 4052,
      "Ġling": 4053,
      "Ġinfant": 4054,
      "Ġracket": 4055,
      "Ġvoir": 4056,
      "Ġvillage": 4057,
      "Ġlamp": 4058,
      "ica": 4059,
      "icule": 4060,
      "Ġatte": 4061,
      "ĠtraÃ®": 4062,
      "ules": 4063,
      "neath": 4064,
      "ife": 4065,
      "ifique": 4066,
      "ised": 4067,
      "Ġalign": 4068,
      "Ġflu": 4069,
      "Ġcold": 4070,
      "ĠdÃ©ch": 4071,
      "Ġbatteur": 4072,
      "ried": 4073,
      "Ġmust": 4074,
      "Ġmural": 4075,
      "Ġheld": 4076,
      "Ġunderneath": 4077,
      "ĠentraÃ®": 4078,
      "Ġescaliers": 4079,
      "Ġprofitant": 4080,
      "Ã©quip": 4081,
      "ĠpromÃ¨nent": 4082,
      "Ġproduit": 4083,
      "Ġvendre": 4084,
      "ĠVo": 4085,
      "Ġstudio": 4086,
      "lÃ¨ve": 4087,
      "Ġeye": 4088,
      "Ġeffectue": 4089,
      "afaud": 4090,
      "Ġkarate": 4091,
      "Ġsplashing": 4092,
      "Ġintersection": 4093,
      "Ġwrestling": 4094,
      "Ġjambe": 4095,
      "ĠÃ©tudiants": 4096,
      "Ġsemblent": 4097,
      "Ġtelescope": 4098,
      "Ġruisseau": 4099,
      "Ġbalustrade": 4100,
      "jo": 4101,
      "ka": 4102,
      "vÃªt": 4103,
      "Ġdol": 4104,
      "ĠpÃ¢": 4105,
      "ĠtÃªtes": 4106,
      "erman": 4107,
      "Ġcrois": 4108,
      "itent": 4109,
      "Ġrient": 4110,
      "Ġval": 4111,
      "ged": 4112,
      "icles": 4113,
      "Ġwithout": 4114,
      "Ġroulettes": 4115,
      "oses": 4116,
      "ulti": 4117,
      "apon": 4118,
      "ctor": 4119,
      "Ġorn": 4120,
      "Ġkil": 4121,
      "ples": 4122,
      "ivement": 4123,
      "Ġcane": 4124,
      "Ġmotifs": 4125,
      "Ġpatient": 4126,
      "Ġsolitaire": 4127,
      "ĠOld": 4128,
      "akes": 4129,
      "Ġmagn": 4130,
      "Ġthemsel": 4131,
      "Ġunderw": 4132,
      "Ġmoving": 4133,
      "Ġstep": 4134,
      "Ġshoe": 4135,
      "Ġsoit": 4136,
      "Ġtouche": 4137,
      "Ġgymnase": 4138,
      "ĠentourÃ©e": 4139,
      "Ġnettoie": 4140,
      "Ġnettoyant": 4141,
      "ĠÃ©chafaud": 4142,
      "ĠKids": 4143,
      "Ġdinner": 4144,
      "Ġhauts": 4145,
      "Ġshoulders": 4146,
      "Ġcampagne": 4147,
      "accord": 4148,
      "Ġcurly": 4149,
      "self": 4150,
      "petit": 4151,
      "Ġtissu": 4152,
      "Ġadmir": 4153,
      "ĠpiÃ©tons": 4154,
      "ĠsoirÃ©e": 4155,
      "Ġendormi": 4156,
      "Ġincluding": 4157,
      "Ġthemselves": 4158,
      "eurs": 4159,
      "land": 4160,
      "ove": 4161,
      "ual": 4162,
      "ze": 4163,
      "Ġeaux": 4164,
      "Ġaide": 4165,
      "ĠdÃ®": 4166,
      "Ġpack": 4167,
      "Ġput": 4168,
      "Ġtor": 4169,
      "ĠbÃ©": 4170,
      "Ġbrosse": 4171,
      "Ġcrying": 4172,
      "oure": 4173,
      "Ġwine": 4174,
      "Ġwets": 4175,
      "Ġwooded": 4176,
      "arrow": 4177,
      "Ġfar": 4178,
      "Ġlang": 4179,
      "Ġdeep": 4180,
      "ĠintÃ©rieur": 4181,
      "rol": 4182,
      "road": 4183,
      "teaux": 4184,
      "Ġcham": 4185,
      "pect": 4186,
      "Ġroue": 4187,
      "Ġroux": 4188,
      "Ġtricks": 4189,
      "Ġcouper": 4190,
      "Ġnez": 4191,
      "aches": 4192,
      "Ġbrand": 4193,
      "Ġkind": 4194,
      "ousi": 4195,
      "Ġchemises": 4196,
      "Ġriant": 4197,
      "Ġtaken": 4198,
      "Ġpicnic": 4199,
      "Ġpatine": 4200,
      "Ġbaskets": 4201,
      "Ġgobe": 4202,
      "ĠcolorÃ©es": 4203,
      "Ġraf": 4204,
      "Ġmatching": 4205,
      "Ġcyclist": 4206,
      "Ġcray": 4207,
      "fully": 4208,
      "Ġcrosswalk": 4209,
      "Ġnuage": 4210,
      "Ġmasc": 4211,
      "Ġdescendent": 4212,
      "ĠenneigÃ©": 4213,
      "Ġhiker": 4214,
      "Ġpulled": 4215,
      "Ġpaille": 4216,
      "Ġmakeup": 4217,
      "Ġgardien": 4218,
      "Ġdoigts": 4219,
      "ĠrÃ©cup": 4220,
      "ĠbondÃ©e": 4221,
      "ĠlumiÃ¨re": 4222,
      "ĠlumiÃ¨res": 4223,
      "Ġproduce": 4224,
      "Ġopposing": 4225,
      "Ġindividuals": 4226,
      "Ġbicyclist": 4227,
      "Ġcadre": 4228,
      "Ġcercle": 4229,
      "Ġchinois": 4230,
      "Ġcarnival": 4231,
      "Ġescaladant": 4232,
      "Ġcommercial": 4233,
      "Ġdirige": 4234,
      "Ġenthousi": 4235,
      "ĠSmall": 4236,
      "ĠWorkers": 4237,
      "Ġheavy": 4238,
      "Ġpoubelle": 4239,
      "ĠVoici": 4240,
      "ake": 4241,
      "cte": 4242,
      "gan": 4243,
      "pon": 4244,
      "yer": 4245,
      "Ġaire": 4246,
      "ended": 4247,
      "Ġpun": 4248,
      "Ġtamb": 4249,
      "Ġbamb": 4250,
      "ister": 4251,
      "Ġfight": 4252,
      "Ġhal": 4253,
      "Ġhug": 4254,
      "Ġlone": 4255,
      "Ġlive": 4256,
      "Ġlib": 4257,
      "Ġgare": 4258,
      "Ġinfl": 4259,
      "urg": 4260,
      "oral": 4261,
      "Ġjungle": 4262,
      "Ġvin": 4263,
      "Ġsurve": 4264,
      "Ġeth": 4265,
      "Ġnose": 4266,
      "Ġgrad": 4267,
      "ĠDans": 4268,
      "ĠDog": 4269,
      "Ġtoile": 4270,
      "Ġsewing": 4271,
      "asso": 4272,
      "Ġroulent": 4273,
      "ĠprÃ©sent": 4274,
      "ĠÃ©to": 4275,
      "ĠÃ©lÃ©": 4276,
      "ĠfaÃ§on": 4277,
      "Ġclosed": 4278,
      "Ġcoul": 4279,
      "Ġbrus": 4280,
      "ĠMar": 4281,
      "Ġbalaie": 4282,
      "Ġglissant": 4283,
      "Ġposs": 4284,
      "Ġtrop": 4285,
      "Ġspot": 4286,
      "Ġperformer": 4287,
      "ggling": 4288,
      "Ġhelp": 4289,
      "Ġpantalons": 4290,
      "Ġmettant": 4291,
      "Ġmoder": 4292,
      "Ġdances": 4293,
      "Ġutilisent": 4294,
      "Ġrolling": 4295,
      "Ġgymnaste": 4296,
      "Ġparticipent": 4297,
      "Ġknee": 4298,
      "Ġwheelchair": 4299,
      "Ġturn": 4300,
      "Ġsoldats": 4301,
      "Ġmilitaire": 4302,
      "Ġmembers": 4303,
      "Ġblock": 4304,
      "Ġstroll": 4305,
      "Ġmoust": 4306,
      "Ġprofession": 4307,
      "Ġattempts": 4308,
      "ĠachÃ¨": 4309,
      "ĠpenchÃ©": 4310,
      "Ġparasol": 4311,
      "Ġdiscussion": 4312,
      "Ġpigeons": 4313,
      "Ġgonflable": 4314,
      "Ġstuffed": 4315,
      "Ġsilhouette": 4316,
      "ĠfaÃ§ade": 4317,
      "Ġcommun": 4318,
      "accordÃ©on": 4319,
      "ious": 4320,
      "pr": 4321,
      "pin": 4322,
      "tur": 4323,
      "uzz": 4324,
      "inette": 4325,
      "Ġpale": 4326,
      "Ġturb": 4327,
      "itÃ©s": 4328,
      "Ġhaute": 4329,
      "Ġlut": 4330,
      "ĠlanÃ§": 4331,
      "Ġdeck": 4332,
      "ural": 4333,
      "atiqu": 4334,
      "Ġvic": 4335,
      "Ġlaver": 4336,
      "Ġgril": 4337,
      "quÃ©": 4338,
      "ely": 4339,
      "Ġpeignant": 4340,
      "Ġdoc": 4341,
      "Ġmarteau": 4342,
      "Ġpratiqu": 4343,
      "agn": 4344,
      "ĠÃ©glise": 4345,
      "Ġbever": 4346,
      "Ġthird": 4347,
      "aching": 4348,
      "Ġbrillant": 4349,
      "Ġmarchandis": 4350,
      "ousse": 4351,
      "ĠThese": 4352,
      "ordinateur": 4353,
      "Ġlunch": 4354,
      "Ġmontent": 4355,
      "Ġderby": 4356,
      "Ġguitariste": 4357,
      "Ġgoes": 4358,
      "Ġchevau": 4359,
      "Ġhimself": 4360,
      "Ġslope": 4361,
      "Ġmode": 4362,
      "Ġmanteaux": 4363,
      "Ġramb": 4364,
      "Ġopening": 4365,
      "Ġcircle": 4366,
      "Ġpushes": 4367,
      "Ġretourn": 4368,
      "Ġcoupant": 4369,
      "Ġlanceur": 4370,
      "Ġurbain": 4371,
      "ĠjetÃ©e": 4372,
      "Ġpompier": 4373,
      "Ġsquare": 4374,
      "Ġhautes": 4375,
      "ĠbondÃ©": 4376,
      "Ġformal": 4377,
      "Ġjambes": 4378,
      "Ġrandonneur": 4379,
      "Ġrandonneurs": 4380,
      "Ġbalcony": 4381,
      "Ġadverse": 4382,
      "Ġlays": 4383,
      "Ġfresque": 4384,
      "Ġstyle": 4385,
      "Ã©loigne": 4386,
      "Ġbottom": 4387,
      "Ġjoye": 4388,
      "Ġcenter": 4389,
      "estrians": 4390,
      "leaders": 4391,
      "Ġtaxi": 4392,
      "ĠlanÃ§ant": 4393,
      "aque": 4394,
      "cted": 4395,
      "eding": 4396,
      "ma": 4397,
      "Ġaff": 4398,
      "Ġbor": 4399,
      "Ġbent": 4400,
      "oux": 4401,
      "Ġwel": 4402,
      "Ġmop": 4403,
      "Ġmonde": 4404,
      "Ġmost": 4405,
      "Ġlies": 4406,
      "Ġvid": 4407,
      "Ġvache": 4408,
      "roche": 4409,
      "Ġchi": 4410,
      "quoise": 4411,
      "Ã¨me": 4412,
      "Ġshad": 4413,
      "Ġsee": 4414,
      "asser": 4415,
      "Ġprin": 4416,
      "Ġtrac": 4417,
      "Ġqueue": 4418,
      "ster": 4419,
      "place": 4420,
      "Ġverd": 4421,
      "Ġtravaux": 4422,
      "ĠCe": 4423,
      "ĠChe": 4424,
      "ĠdÃ©cou": 4425,
      "Ġcamping": 4426,
      "Ġtermin": 4427,
      "Ġmontant": 4428,
      "Ġexerc": 4429,
      "Ġsourire": 4430,
      "ĠÃ©coss": 4431,
      "Ġspeaks": 4432,
      "anger": 4433,
      "Ġparcours": 4434,
      "Ġsandy": 4435,
      "Ġbagages": 4436,
      "Ġprofite": 4437,
      "ucks": 4438,
      "Ġlivres": 4439,
      "Ġtourne": 4440,
      "Ġstaircase": 4441,
      "Ġboxes": 4442,
      "ĠcouchÃ©": 4443,
      "Ġchefs": 4444,
      "Ġchases": 4445,
      "ĠrassemblÃ©s": 4446,
      "Ġruban": 4447,
      "ĠrÃ©parer": 4448,
      "Ġapplaud": 4449,
      "Ġtraditionnels": 4450,
      "ĠÃ©coutant": 4451,
      "Ġdevice": 4452,
      "Ġindoor": 4453,
      "Ġputs": 4454,
      "Ġathlete": 4455,
      "Ġbutton": 4456,
      "ĠsupermarchÃ©": 4457,
      "day": 4458,
      "jam": 4459,
      "Ġden": 4460,
      "Ġdur": 4461,
      "Ġpiz": 4462,
      "Ġtw": 4463,
      "Ġtar": 4464,
      "Ġbin": 4465,
      "Ġcook": 4466,
      "reg": 4467,
      "arn": 4468,
      "Ġmal": 4469,
      "ĠAT": 4470,
      "Ġgam": 4471,
      "Ġres": 4472,
      "veur": 4473,
      "ices": 4474,
      "outh": 4475,
      "outs": 4476,
      "aying": 4477,
      "Ã¨che": 4478,
      "Ġshaking": 4479,
      "riers": 4480,
      "Ġpeau": 4481,
      "vered": 4482,
      "ĠprÃªt": 4483,
      "ĠÃ©l": 4484,
      "ends": 4485,
      "Ġtract": 4486,
      "tÃ©s": 4487,
      "Ġkicks": 4488,
      "Ã´le": 4489,
      "Ġscient": 4490,
      "phant": 4491,
      "ĠdÃ©je": 4492,
      "isses": 4493,
      "Ġoveralls": 4494,
      "Ġposter": 4495,
      "Ġamb": 4496,
      "plane": 4497,
      "Ġcompos": 4498,
      "Ġchantent": 4499,
      "Ġpublique": 4500,
      "Ġmachines": 4501,
      "Ġsheet": 4502,
      "ionnette": 4503,
      "Ġcovering": 4504,
      "Ġmotorcycl": 4505,
      "Ġdrives": 4506,
      "Ġtracks": 4507,
      "Ġtoute": 4508,
      "Ġtentent": 4509,
      "Ġ20": 4510,
      "fÃ©ren": 4511,
      "Ġplateau": 4512,
      "Ġblocks": 4513,
      "Ġfallen": 4514,
      "scape": 4515,
      "Ġgentlemen": 4516,
      "Ġnature": 4517,
      "ĠarrÃªt": 4518,
      "Ġenjoys": 4519,
      "Ġtatouage": 4520,
      "Ġcirculation": 4521,
      "ĠdÃ©tend": 4522,
      "Ġfresh": 4523,
      "Ġcertains": 4524,
      "Ġressemb": 4525,
      "Ġpaved": 4526,
      "Ġheureux": 4527,
      "Ġgrocery": 4528,
      "Ġkeyboard": 4529,
      "Ġwetsuit": 4530,
      "Ġlangue": 4531,
      "Ġbrandit": 4532,
      "Ġtambour": 4533,
      "Ġcouloir": 4534,
      "ails": 4535,
      "ios": 4536,
      "jama": 4537,
      "ris": 4538,
      "tr": 4539,
      "uant": 4540,
      "uies": 4541,
      "xy": 4542,
      "Ġombre": 4543,
      "Ġaid": 4544,
      "Ġajus": 4545,
      "inning": 4546,
      "Ġdon": 4547,
      "Ġsum": 4548,
      "enc": 4549,
      "ending": 4550,
      "Ġpitch": 4551,
      "Ġpuddle": 4552,
      "Ġbir": 4553,
      "Ġbra": 4554,
      "ern": 4555,
      "Ġcurb": 4556,
      "ĠmÃ©": 4557,
      "Ġmord": 4558,
      "Ġfarm": 4559,
      "Ġlots": 4560,
      "Ġgate": 4561,
      "Ġrout": 4562,
      "Ġenf": 4563,
      "Ġanc": 4564,
      "acher": 4565,
      "Ġstool": 4566,
      "Ġchor": 4567,
      "Ġnice": 4568,
      "Ġlead": 4569,
      "Ã¨que": 4570,
      "Ġshaving": 4571,
      "illon": 4572,
      "apan": 4573,
      "Ġcouvre": 4574,
      "ĠLond": 4575,
      "Ġpouring": 4576,
      "Ġmarching": 4577,
      "Ġkios": 4578,
      "ĠSur": 4579,
      "Ġcomment": 4580,
      "ĠCes": 4581,
      "Ġperc": 4582,
      "Ġtee": 4583,
      "Ġtele": 4584,
      "Ġtech": 4585,
      "Ġmonticule": 4586,
      "Ġexh": 4587,
      "Ġvoy": 4588,
      "Ġvoile": 4589,
      "Ġami": 4590,
      "tÃ©rieure": 4591,
      "ĠrÃ©p": 4592,
      "ĠrÃ©fl": 4593,
      "ĠOlder": 4594,
      "Ġsalop": 4595,
      "Ġsalto": 4596,
      "Ġluge": 4597,
      "Ġmob": 4598,
      "appuie": 4599,
      "Ġdancer": 4600,
      "ĠÃ©tang": 4601,
      "ĠtroisiÃ¨me": 4602,
      "Ġsteep": 4603,
      "Ġwindows": 4604,
      "Ġcarton": 4605,
      "Ġfrappant": 4606,
      "Ġdriver": 4607,
      "ashion": 4608,
      "Ġhikers": 4609,
      "Ġordin": 4610,
      "Ġparapluies": 4611,
      "Ġmilitaires": 4612,
      "Ġsupport": 4613,
      "Ġpilot": 4614,
      "Ġteenagers": 4615,
      "Ġguard": 4616,
      "Ġfilm": 4617,
      "ĠpiÃ©ton": 4618,
      "covered": 4619,
      "Ġcherche": 4620,
      "ĠÃ©paule": 4621,
      "Ġpitcher": 4622,
      "Ġbicyclists": 4623,
      "Ġnouveau": 4624,
      "Ġpasserelle": 4625,
      "Ġactiv": 4626,
      "Ġfingers": 4627,
      "Ġwaterfall": 4628,
      "Ġporch": 4629,
      "Ġcavalier": 4630,
      "Ġcustomers": 4631,
      "ĠcotÃ©": 4632,
      "Ġlaundry": 4633,
      "ĠdÃ©jeun": 4634,
      "Ġbirds": 4635,
      "ĠrÃ©flÃ©ch": 4636,
      "TT": 4637,
      "avant": 4638,
      "des": 4639,
      "ky": 4640,
      "neaux": 4641,
      "rons": 4642,
      "sant": 4643,
      "Ġils": 4644,
      "Ġdit": 4645,
      "Ġpair": 4646,
      "Ġtile": 4647,
      "Ġcadeau": 4648,
      "Ġfac": 4649,
      "Ġgroom": 4650,
      "antes": 4651,
      "Ġjour": 4652,
      "Ġchalk": 4653,
      "Ġgrat": 4654,
      "Ġgrab": 4655,
      "Ġgrave": 4656,
      "ayer": 4657,
      "Ġledge": 4658,
      "Ġship": 4659,
      "aman": 4660,
      "Ġchez": 4661,
      "Ġchecking": 4662,
      "ĠÃ©tÃ©": 4663,
      "ĠthÃ©": 4664,
      "Ġarena": 4665,
      "Ġtenir": 4666,
      "Ġpois": 4667,
      "Ġalpin": 4668,
      "ĠSh": 4669,
      "ĠSant": 4670,
      "ĠconfÃ©ren": 4671,
      "ĠCet": 4672,
      "Ġcolors": 4673,
      "Ġbackyard": 4674,
      "Ġbalai": 4675,
      "Ġcool": 4676,
      "Ġattached": 4677,
      "Ġapart": 4678,
      "Ġairplane": 4679,
      "Ġpick": 4680,
      "Ġpoles": 4681,
      "Ġmotos": 4682,
      "uisent": 4683,
      "Ġpattes": 4684,
      "Ġbouquet": 4685,
      "Ġcontr": 4686,
      "ggage": 4687,
      "Ġchevauche": 4688,
      "aker": 4689,
      "Ġmusicien": 4690,
      "Ġcape": 4691,
      "Ġimpos": 4692,
      "Ġplane": 4693,
      "ĠHere": 4694,
      "Ġsheep": 4695,
      "Ġshoveling": 4696,
      "Ġindien": 4697,
      "Ġchanteur": 4698,
      "ĠVTT": 4699,
      "Ġmeet": 4700,
      "Ġtouristes": 4701,
      "Ġhangs": 4702,
      "Åĵur": 4703,
      "Ġteenager": 4704,
      "ĠÃ©quipement": 4705,
      "ĠpavÃ©": 4706,
      "Ġforeign": 4707,
      "Ġreaches": 4708,
      "Ġopposite": 4709,
      "Ġshooting": 4710,
      "amusent": 4711,
      "Ġtombe": 4712,
      "Ġoccup": 4713,
      "Ġcloudy": 4714,
      "Ġwrapped": 4715,
      "Ġfabric": 4716,
      "ĠÃ©claboussures": 4717,
      "ĠathlÃ¨te": 4718,
      "Ġsimil": 4719,
      "Ġpaddling": 4720,
      "Ġprotective": 4721,
      "Ġkhaki": 4722,
      "Ġevening": 4723,
      "ĠvidÃ©o": 4724,
      "Ġdenim": 4725,
      "Ġsalopette": 4726,
      ".\"": 4727,
      "aient": 4728,
      "cess": 4729,
      "cule": 4730,
      "front": 4731,
      "mo": 4732,
      "ments": 4733,
      "ining": 4734,
      "ĠdÃ©l": 4735,
      "Ġdust": 4736,
      "enne": 4737,
      "Ġpipe": 4738,
      "erte": 4739,
      "Ġcri": 4740,
      "Ġcage": 4741,
      "Ġcame": 4742,
      "Ġunique": 4743,
      "argent": 4744,
      "ĠmÃ©l": 4745,
      "Ġmound": 4746,
      "Ġfort": 4747,
      "Ġfast": 4748,
      "Ġlasso": 4749,
      "Ã©tÃ©": 4750,
      "Ġrame": 4751,
      "Ġround": 4752,
      "atable": 4753,
      "Ġdanser": 4754,
      "eman": 4755,
      "Ġblo": 4756,
      "Ġstack": 4757,
      "Ġdesign": 4758,
      "ram": 4759,
      "abl": 4760,
      "aines": 4761,
      "Ġfris": 4762,
      "umin": 4763,
      "Ġarch": 4764,
      "Ġarbitre": 4765,
      "appareil": 4766,
      "Ġclav": 4767,
      "ift": 4768,
      "Ġcouverte": 4769,
      "upes": 4770,
      "Ġverres": 4771,
      "Ġflaque": 4772,
      "Ġsword": 4773,
      "Ġcones": 4774,
      "ĠMc": 4775,
      "ĠchaÃ®": 4776,
      "ipes": 4777,
      "Ġraft": 4778,
      "Ġluggage": 4779,
      "Ġoppon": 4780,
      "Ġarticles": 4781,
      "Ġvolant": 4782,
      "ĠcrÃ©": 4783,
      "Ġouvre": 4784,
      "Ġrayures": 4785,
      "Ã©rer": 4786,
      "Ġfeuille": 4787,
      "Ġfenced": 4788,
      "ĠJapan": 4789,
      "Ġcreus": 4790,
      "ĠfoncÃ©e": 4791,
      "Ġclear": 4792,
      "Ġtentant": 4793,
      "Ġrelig": 4794,
      "Ġsoldat": 4795,
      "Ġlift": 4796,
      "ĠdiffÃ©rents": 4797,
      "Ġdirections": 4798,
      "Ġserviette": 4799,
      "Ġbalancing": 4800,
      "Ġhumide": 4801,
      "Ġpavement": 4802,
      "Ġattentivement": 4803,
      "Ġtongue": 4804,
      "ĠsiÃ¨ge": 4805,
      "Ġpyjama": 4806,
      "affrontent": 4807,
      "Ġalimentaire": 4808,
      "ĠdÃ®ner": 4809,
      "Ġchambre": 4810,
      "Ġinflatable": 4811,
      "Ġrambarde": 4812,
      "aped": 4813,
      "cs": 4814,
      "pir": 4815,
      "pent": 4816,
      "ring": 4817,
      "used": 4818,
      "we": 4819,
      "zer": 4820,
      "ino": 4821,
      "Ġdom": 4822,
      "Ġsar": 4823,
      "Ġpir": 4824,
      "lets": 4825,
      "ouret": 4826,
      "Ġwas": 4827,
      "Ġwild": 4828,
      "ising": 4829,
      "Ġmurs": 4830,
      "Ġlow": 4831,
      "ĠAr": 4832,
      "urope": 4833,
      "Ġradeau": 4834,
      "entrÃ©e": 4835,
      "Ġange": 4836,
      "Ġsurfant": 4837,
      "quant": 4838,
      "Ġboire": 4839,
      "Ġboivent": 4840,
      "Ġmarried": 4841,
      "Ġsea": 4842,
      "Ġseat": 4843,
      "Ġassiette": 4844,
      "Ġsitu": 4845,
      "Ġprint": 4846,
      "Ġoutils": 4847,
      "Ġbeam": 4848,
      "Ġeats": 4849,
      "Ġportrait": 4850,
      "ific": 4851,
      "Ġorgan": 4852,
      "Ġpourch": 4853,
      "Ġbuying": 4854,
      "Ġalle": 4855,
      "Ġflam": 4856,
      "Ġflight": 4857,
      "Ġfloral": 4858,
      "tered": 4859,
      "ĠcÃ´tÃ©s": 4860,
      "Ġcourtyard": 4861,
      "Ġskateboards": 4862,
      "Ġtalons": 4863,
      "Ġamer": 4864,
      "alement": 4865,
      "Ġwalls": 4866,
      "Ġheadsc": 4867,
      "Ġswimsuit": 4868,
      "Ġmettre": 4869,
      "Ġaccident": 4870,
      "Ġaccomp": 4871,
      "Ġfloating": 4872,
      "Ġsod": 4873,
      "Ġdanseuse": 4874,
      "Ġtabouret": 4875,
      "Ġmotorcycles": 4876,
      "Ġmonument": 4877,
      "izon": 4878,
      "Ġchaussettes": 4879,
      "Ġjuggling": 4880,
      "Ġdescendre": 4881,
      "ĠmariÃ©": 4882,
      "Ġlaughs": 4883,
      "Ġconduc": 4884,
      "Ġpancartes": 4885,
      "ĠlÃ©gÃ¨re": 4886,
      "Ġskirts": 4887,
      "ĠdÃ©serte": 4888,
      "Ġrefere": 4889,
      "Ġrailroad": 4890,
      "Ġbreakd": 4891,
      "ĠÃ©clairÃ©e": 4892,
      "ĠattachÃ©": 4893,
      "Ġgoalie": 4894,
      "Ġtransportant": 4895,
      "Ġframe": 4896,
      "Ġdormant": 4897,
      "Ġflottant": 4898,
      "amusant": 4899,
      "Ġbandana": 4900,
      "Ġbandanna": 4901,
      "ĠcÃ¢lin": 4902,
      "Ġtricycle": 4903,
      "Ġfootballeurs": 4904,
      "Ġbranches": 4905,
      "Ġcontainer": 4906,
      "Ġconduisant": 4907,
      "Ġsyn": 4908,
      "Ġrassemblement": 4909,
      "Ġlinge": 4910,
      "Ġprofessional": 4911,
      "Ġjoyeusement": 4912,
      "Ġtracteur": 4913,
      "jamas": 4914,
      "Ġtractor": 4915,
      "ĠSanta": 4916,
      "Ġclavier": 4917,
      "gÃ©": 4918,
      "ki": 4919,
      "pÃ©e": 4920,
      "ton": 4921,
      "tiste": 4922,
      "wel": 4923,
      "Ġi": 4924,
      "Ġill": 4925,
      "Ġsap": 4926,
      "Ġpig": 4927,
      "onal": 4928,
      "Ġcong": 4929,
      "Ġmap": 4930,
      "Ġfus": 4931,
      "Ġfill": 4932,
      "Ġhay": 4933,
      "Ġdef": 4934,
      "Ġjupes": 4935,
      "Ġchac": 4936,
      "Ġlam": 4937,
      "ither": 4938,
      "Ġplong": 4939,
      "ieux": 4940,
      "Ġshown": 4941,
      "Ġtools": 4942,
      "Ġparents": 4943,
      "rient": 4944,
      "Ġyog": 4945,
      "Ġtram": 4946,
      "illent": 4947,
      "ageant": 4948,
      "Ġeither": 4949,
      "ender": 4950,
      "Ġtran": 4951,
      "Ġcoudre": 4952,
      "Ġcarpet": 4953,
      "Ġbucking": 4954,
      "eds": 4955,
      "ĠCl": 4956,
      "Ġbackwards": 4957,
      "Ġbalade": 4958,
      "utent": 4959,
      "Ġcamionnette": 4960,
      "Ġtex": 4961,
      "Ġtrottinette": 4962,
      "ĠÃ©cri": 4963,
      "iatiques": 4964,
      "Ġboug": 4965,
      "Ġsocks": 4966,
      "akers": 4967,
      "ĠSept": 4968,
      "Ġcorp": 4969,
      "Ġmusician": 4970,
      "ĠtÃ©lÃ©ph": 4971,
      "Ġmoves": 4972,
      "Ġriders": 4973,
      "Ġsert": 4974,
      "Ġboats": 4975,
      "Ġdrag": 4976,
      "ĠpublicitÃ©": 4977,
      "Ġplaque": 4978,
      "Ġfiref": 4979,
      "ĠchaussÃ©e": 4980,
      "Ġmarketplace": 4981,
      "Ġtouching": 4982,
      "ĠpoussiÃ¨re": 4983,
      "Ġcraf": 4984,
      "ĠclÃ´tur": 4985,
      "Ġbread": 4986,
      "Ã©roport": 4987,
      "Ġappear": 4988,
      "Ġsoldier": 4989,
      "Ġsoldiers": 4990,
      "Ġpajamas": 4991,
      "Ġcarriage": 4992,
      "Ġsuspended": 4993,
      "ĠfrÃ©quentÃ©": 4994,
      "monstr": 4995,
      "Ġjerseys": 4996,
      "Ġnatation": 4997,
      "othÃ¨que": 4998,
      "Ġhappily": 4999,
      "Ġcheering": 5000,
      "Ġmagazines": 5001,
      "ĠemployÃ©s": 5002,
      "Ġgarbage": 5003,
      "Ġrollersk": 5004,
      "Ġprofessionnelle": 5005,
      "Ġentertain": 5006,
      "Ġfootballeur": 5007,
      "Ġacoustic": 5008,
      "Ġacoustique": 5009,
      "Ġgoods": 5010,
      "Ġhurdle": 5011,
      "apprÃªtant": 5012,
      "ĠfermÃ©s": 5013,
      "Ġscaffolding": 5014,
      "ultiple": 5015,
      "Ġhalf": 5016,
      "Ġchevauchant": 5017,
      "Ġgamin": 5018,
      "Ġ201": 5019,
      "ĠconfÃ©rence": 5020,
      "Ġallemand": 5021,
      "Ġyoga": 5022,
      "aille": 5023,
      "cin": 5024,
      "col": 5025,
      "cut": 5026,
      "ech": 5027,
      "go": 5028,
      "lage": 5029,
      "oie": 5030,
      "po": 5031,
      "ral": 5032,
      "skin": 5033,
      "ty": 5034,
      "Ġke": 5035,
      "ĠaÃ©ri": 5036,
      "inis": 5037,
      "ĠpÃ©d": 5038,
      "Ġbroom": 5039,
      "arter": 5040,
      "Ġmit": 5041,
      "Ġfir": 5042,
      "Ġfoc": 5043,
      "ĠAt": 5044,
      "ĠintÃ©": 5045,
      "Ġinvol": 5046,
      "Ġrural": 5047,
      "Ġolymp": 5048,
      "Ġvives": 5049,
      "empt": 5050,
      "Ġmanne": 5051,
      "Ġstove": 5052,
      "Ġchop": 5053,
      "Ġchest": 5054,
      "Ġname": 5055,
      "olf": 5056,
      "Ġshade": 5057,
      "elf": 5058,
      "rif": 5059,
      "Ġpeace": 5060,
      "ooks": 5061,
      "illÃ©s": 5062,
      "ulent": 5063,
      "Ġegg": 5064,
      "ĠarÃ¨ne": 5065,
      "Ġcouples": 5066,
      "ocol": 5067,
      "Ġballes": 5068,
      "Ġcartes": 5069,
      "Ġsail": 5070,
      "Ġpoign": 5071,
      "Ġpoissons": 5072,
      "Ġbuissons": 5073,
      "Ã¢che": 5074,
      "Ã¢tre": 5075,
      "Ġcommand": 5076,
      "Ġscr": 5077,
      "ĠMale": 5078,
      "ĠCol": 5079,
      "Ġprob": 5080,
      "Ġproje": 5081,
      "ĠcoÃ©quip": 5082,
      "Ġattract": 5083,
      "Ġglaces": 5084,
      "Ġgrandes": 5085,
      "Ġbattant": 5086,
      "Ġairport": 5087,
      "Ġperche": 5088,
      "Ġmonter": 5089,
      "Ġdry": 5090,
      "Ġtops": 5091,
      "ĠrÃ©pare": 5092,
      "Ġraised": 5093,
      "Ġagent": 5094,
      "ĠGerman": 5095,
      "ĠSeven": 5096,
      "Ġpaints": 5097,
      "Ġvisages": 5098,
      "Ġserving": 5099,
      "Ġtowel": 5100,
      "Ġprofitent": 5101,
      "Ġteamm": 5102,
      "Ġdiscuter": 5103,
      "Ġfloat": 5104,
      "Ġliving": 5105,
      "Ġplaza": 5106,
      "aved": 5107,
      "Ġanimals": 5108,
      "attract": 5109,
      "ĠJoh": 5110,
      "Ġtirer": 5111,
      "Ġparticipe": 5112,
      "Ġcircuit": 5113,
      "Ġbackpacks": 5114,
      "awk": 5115,
      "Ġkneels": 5116,
      "Ġbanjo": 5117,
      "Ġathlet": 5118,
      "Ġblocs": 5119,
      "Ġtrouvent": 5120,
      "Ġdining": 5121,
      "iblement": 5122,
      "Ã»te": 5123,
      "Ġbubble": 5124,
      "Ġlandscape": 5125,
      "embrassant": 5126,
      "Ġressemble": 5127,
      "Ġcaught": 5128,
      "Ġadvertisement": 5129,
      "ĠWhite": 5130,
      "Ġjolie": 5131,
      "Ġrebord": 5132,
      "sleeved": 5133,
      "Ġblouson": 5134,
      "Ġfoin": 5135,
      "Ġbasketteur": 5136,
      "Ġpoutre": 5137,
      "Ġunderwater": 5138,
      "ĠbÃ©ret": 5139,
      "Ġgradins": 5140,
      "Ġwelding": 5141,
      "Ġambulant": 5142,
      "Ġamerican": 5143,
      "Ġsapin": 5144,
      "skinned": 5145,
      "Ġmannequ": 5146,
      "cle": 5147,
      "fond": 5148,
      "hood": 5149,
      "lace": 5150,
      "mers": 5151,
      "rÃ©s": 5152,
      "rÃ©es": 5153,
      "tor": 5154,
      "Ġ;": 5155,
      "Ġuse": 5156,
      "Ġaw": 5157,
      "Ġsoule": 5158,
      "Ġpop": 5159,
      "Ġpony": 5160,
      "ĠcÃ©l": 5161,
      "ĠfÃ©": 5162,
      "Ġhooded": 5163,
      "Ġlant": 5164,
      "Ġgal": 5165,
      "alle": 5166,
      "Ġrire": 5167,
      "Ġchoses": 5168,
      "oles": 5169,
      "esting": 5170,
      "rime": 5171,
      "Ġseems": 5172,
      "Ġquit": 5173,
      "Ġpris": 5174,
      "ular": 5175,
      "adul": 5176,
      "Ġouts": 5177,
      "Ġbeg": 5178,
      "Ġthrown": 5179,
      "andissant": 5180,
      "Ġtrump": 5181,
      "treet": 5182,
      "Ġneon": 5183,
      "Ġbrandissant": 5184,
      "Ġsais": 5185,
      "Ġpoil": 5186,
      "Ġherbes": 5187,
      "pliqu": 5188,
      "ĠStreet": 5189,
      "ĠPÃ¨re": 5190,
      "Ġfly": 5191,
      "Ġrunners": 5192,
      "ĠdÃ©coup": 5193,
      "Ġbij": 5194,
      "Ġattrap": 5195,
      "Ġcasquettes": 5196,
      "Ġappare": 5197,
      "Ġadoss": 5198,
      "ĠFire": 5199,
      "Ġbarb": 5200,
      "Ġexper": 5201,
      "Ġpolka": 5202,
      "Ġouvert": 5203,
      "Ġamusement": 5204,
      "Ġbancs": 5205,
      "Ġclimber": 5206,
      "Ġbateaux": 5207,
      "Ġstorefront": 5208,
      "Ġemer": 5209,
      "Ġplafond": 5210,
      "ĠallongÃ©s": 5211,
      "Ġdanseurs": 5212,
      "Ġdrive": 5213,
      "Ġtirent": 5214,
      "Ġdisp": 5215,
      "Ġpointe": 5216,
      "ĠsoulÃ¨ve": 5217,
      "Ġgrilling": 5218,
      "Ġordures": 5219,
      "ĠvÃ©tÃ©": 5220,
      "Ġstudent": 5221,
      "Ġparticipating": 5222,
      "Ġdistri": 5223,
      "Ġturquoise": 5224,
      "Ġnettoyer": 5225,
      "Ġrollerbl": 5226,
      "Ġmulticolores": 5227,
      "ĠmouillÃ©": 5228,
      "Ġsquat": 5229,
      "Ġbouteilles": 5230,
      "uffy": 5231,
      "ĠemployÃ©": 5232,
      "Ġberger": 5233,
      "Ġbending": 5234,
      "Ġexamining": 5235,
      "Ġtongs": 5236,
      "casian": 5237,
      "Ġmanifestation": 5238,
      "Ġharness": 5239,
      "Ġoperating": 5240,
      "ĠappuyÃ©": 5241,
      "Ġidentiques": 5242,
      "Ġheart": 5243,
      "Ġfluo": 5244,
      "ĠentraÃ®ne": 5245,
      "Ġkilt": 5246,
      "ĠÃ©chafaudage": 5247,
      "Ġgobelet": 5248,
      "Ġenthousias": 5249,
      "Ġbrushing": 5250,
      "Ġturban": 5251,
      "Ġmarchandises": 5252,
      "Ġmodel": 5253,
      "Ġverdoy": 5254,
      "Ġmobile": 5255,
      "Ġordinateurs": 5256,
      "Ġgravel": 5257,
      "ĠMcD": 5258,
      "Ġreferee": 5259,
      "ĠtÃ©lÃ©phon": 5260,
      "Ġ2012": 5261,
      "Ġathletic": 5262,
      "ĠfÃ©min": 5263,
      "aÃ§ant": 5264,
      "bow": 5265,
      "down": 5266,
      "eu": 5267,
      "fort": 5268,
      "gu": 5269,
      "gle": 5270,
      "girl": 5271,
      "golf": 5272,
      "imes": 5273,
      "like": 5274,
      "ok": 5275,
      "pÃ©": 5276,
      "top": 5277,
      "ttes": 5278,
      "vriers": 5279,
      "xe": 5280,
      "Ġ6": 5281,
      "Ġesc": 5282,
      "Ġab": 5283,
      "ank": 5284,
      "Ġdim": 5285,
      "Ġdump": 5286,
      "Ġdish": 5287,
      "Ġsets": 5288,
      "Ġcop": 5289,
      "Ġcone": 5290,
      "Ġcare": 5291,
      "Ġwide": 5292,
      "Ġwire": 5293,
      "Ġwarm": 5294,
      "isan": 5295,
      "Ġmini": 5296,
      "Ġmoney": 5297,
      "Ġfon": 5298,
      "Ġfashion": 5299,
      "Ġhos": 5300,
      "Ġgant": 5301,
      "Ġinf": 5302,
      "Ġrus": 5303,
      "Ġrond": 5304,
      "Ġrust": 5305,
      "Ġropes": 5306,
      "aters": 5307,
      "Ġjog": 5308,
      "asure": 5309,
      "Ġmanip": 5310,
      "Ġblaz": 5311,
      "Ġsticking": 5312,
      "Ġnom": 5313,
      "Ġgrin": 5314,
      "ĠDJ": 5315,
      "allÃ©e": 5316,
      "Ġsharing": 5317,
      "pel": 5318,
      "ancy": 5319,
      "ances": 5320,
      "Ġyou": 5321,
      "Ġyouth": 5322,
      "illy": 5323,
      "Ġquarter": 5324,
      "Ġassort": 5325,
      "uments": 5326,
      "Ġthin": 5327,
      "Ġthings": 5328,
      "Ġthumb": 5329,
      "endie": 5330,
      "idement": 5331,
      "Ġtry": 5332,
      "Ġtromp": 5333,
      "ablement": 5334,
      "Ġcarte": 5335,
      "Ġbuff": 5336,
      "ĠcÃ´nes": 5337,
      "Ġattempt": 5338,
      "Ġribb": 5339,
      "Ġheels": 5340,
      "Ġchame": 5341,
      "Ġteacher": 5342,
      "ighters": 5343,
      "Ġpassagers": 5344,
      "Ġmotards": 5345,
      "Ġhaircut": 5346,
      "ĠOlymp": 5347,
      "Ġballet": 5348,
      "Ġbander": 5349,
      "Ġbenches": 5350,
      "Ġpleure": 5351,
      "Ġcyclists": 5352,
      "Ġpublicitaire": 5353,
      "exas": 5354,
      "Ġplanches": 5355,
      "ption": 5356,
      "ĠHom": 5357,
      "Ġdiscours": 5358,
      "Ġstru": 5359,
      "Ġstationn": 5360,
      "Ġcartons": 5361,
      "Ġdanseuses": 5362,
      "ĠEurope": 5363,
      "Ġchaussure": 5364,
      "ĠRed": 5365,
      "Ġtoucher": 5366,
      "Ġtrip": 5367,
      "Ġlacrosse": 5368,
      "Ġcompete": 5369,
      "Ġvitesse": 5370,
      "Ġphotographs": 5371,
      "Ġhitting": 5372,
      "Ġtypes": 5373,
      "Ġauditor": 5374,
      "Ġfauteuils": 5375,
      "Ġpractice": 5376,
      "Ġhotdog": 5377,
      "ĠrÃ©cip": 5378,
      "Ġvehicles": 5379,
      "Ġcuisinant": 5380,
      "Ġtomber": 5381,
      "arrÃª": 5382,
      "Ġgazon": 5383,
      "ĠÃ©clairÃ©": 5384,
      "Ġindividual": 5385,
      "ĠdÃ©col": 5386,
      "Ġmuddy": 5387,
      "Ġoiseaux": 5388,
      "Ġorchestra": 5389,
      "Ġdormir": 5390,
      "Ġknit": 5391,
      "Ġexpress": 5392,
      "Ġhallway": 5393,
      "Ġbathroom": 5394,
      "Ġmotorb": 5395,
      "Ġcrouches": 5396,
      "Ġcheckered": 5397,
      "Ġcandy": 5398,
      "Ġdecorated": 5399,
      "Ġpresentation": 5400,
      "ĠsiÃ¨ges": 5401,
      "engers": 5402,
      "ĠÃ©tranger": 5403,
      "Ġpedestrians": 5404,
      "Ġmagnifique": 5405,
      "Ġrafting": 5406,
      "ĠATV": 5407,
      "Ġressemblant": 5408,
      "ĠmÃ©de": 5409,
      "Ġroutine": 5410,
      "Ġkiosque": 5411,
      "Ġexhib": 5412,
      "ĠchaÃ®ne": 5413,
      "Ġopponent": 5414,
      "ĠJapanese": 5415,
      "Ġheadscarf": 5416,
      "attractions": 5417,
      "adultes": 5418,
      "Ġoutstre": 5419,
      "Ġauditorium": 5420,
      "aÃ¯": 5421,
      "com": 5422,
      "hor": 5423,
      "house": 5424,
      "ior": 5425,
      "nivers": 5426,
      "ru": 5427,
      "rack": 5428,
      "so": 5429,
      "vÃ©s": 5430,
      "ws": 5431,
      "yh": 5432,
      "iny": 5433,
      "inery": 5434,
      "Ġsem": 5435,
      "Ġsink": 5436,
      "Ġpins": 5437,
      "ara": 5438,
      "Ġmuzz": 5439,
      "Ġfat": 5440,
      "Ġhut": 5441,
      "etrack": 5442,
      "Ġinform": 5443,
      "orig": 5444,
      "Ġru": 5445,
      "Ġrowing": 5446,
      "Ġenvel": 5447,
      "Ġjapon": 5448,
      "Ġonly": 5449,
      "Ġvaste": 5450,
      "acking": 5451,
      "rop": 5452,
      "emment": 5453,
      "teindre": 5454,
      "Ġstart": 5455,
      "icop": 5456,
      "icale": 5457,
      "old": 5458,
      "Ġpliant": 5459,
      "irth": 5460,
      "Ġtool": 5461,
      "Ġatter": 5462,
      "onnÃ©": 5463,
      "Ġjewel": 5464,
      "Ãªts": 5465,
      "umn": 5466,
      "assÃ©": 5467,
      "ĠprÃ©s": 5468,
      "ĠprÃªts": 5469,
      "orses": 5470,
      "Ġportables": 5471,
      "cts": 5472,
      "Ġorder": 5473,
      "Ġneigh": 5474,
      "achet": 5475,
      "box": 5476,
      "Ġbrass": 5477,
      "Ġpoit": 5478,
      "Ġaliments": 5479,
      "Ġalso": 5480,
      "ĠSc": 5481,
      "ĠSp": 5482,
      "ĠflÃ¢": 5483,
      "Ġbasse": 5484,
      "tery": 5485,
      "toire": 5486,
      "ured": 5487,
      "Ġscre": 5488,
      "ycling": 5489,
      "ĠdÃ©m": 5490,
      "ĠdÃ©p": 5491,
      "Ġadjus": 5492,
      "isser": 5493,
      "ested": 5494,
      "Ġmontrent": 5495,
      "ĠBrown": 5496,
      "Ġvoil": 5497,
      "Ġrests": 5498,
      "Ġpassengers": 5499,
      "Ġspeech": 5500,
      "Ġwake": 5501,
      "Ġguitars": 5502,
      "Ġpatter": 5503,
      "Ġfeeding": 5504,
      "Ġagitant": 5505,
      "Ġchanter": 5506,
      "Ġslides": 5507,
      "Ġentr": 5508,
      "Ġjumpsuit": 5509,
      "Ġmachinery": 5510,
      "Ã©cole": 5511,
      "vention": 5512,
      "Ġsporting": 5513,
      "ibles": 5514,
      "ibly": 5515,
      "Ġanimaux": 5516,
      "Ġtravailleurs": 5517,
      "ĠEl": 5518,
      "Ġceiling": 5519,
      "Ġdribb": 5520,
      "Ġindienne": 5521,
      "Ġsortant": 5522,
      "Ġsnowboarding": 5523,
      "Ġcleans": 5524,
      "Ġconcent": 5525,
      "ĠprÃ©parer": 5526,
      "Ġsurrounding": 5527,
      "Ġpoliceman": 5528,
      "Ġretrie": 5529,
      "ĠvÃ©rif": 5530,
      "Ġdrummer": 5531,
      "Ġcombinaisons": 5532,
      "Ġsculpt": 5533,
      "Ġintervie": 5534,
      "Ġkayaks": 5535,
      "Ġgrimpant": 5536,
      "Ġfilets": 5537,
      "ĠmÃ©talliques": 5538,
      "Ġurbaine": 5539,
      "Ġdroit": 5540,
      "Ġnative": 5541,
      "ĠvÃ©hicules": 5542,
      "Ġcuisinier": 5543,
      "Ġears": 5544,
      "coat": 5545,
      "Ġbaign": 5546,
      "ĠdÃ©cont": 5547,
      "Ġfrais": 5548,
      "embrassent": 5549,
      "Ġracer": 5550,
      "Ġracetrack": 5551,
      "Ġafricains": 5552,
      "Ġcertaines": 5553,
      "Ġexcited": 5554,
      "Ġpatinoire": 5555,
      "Ġbranch": 5556,
      "Ġoreilles": 5557,
      "Ġharnais": 5558,
      "Ġjongle": 5559,
      "Ġcommence": 5560,
      "Ġmustache": 5561,
      "ĠrÃ©cupÃ©rer": 5562,
      "truck": 5563,
      "Ġaidant": 5564,
      "Ġsummer": 5565,
      "ĠdÃ©jeuner": 5566,
      "Ġsoda": 5567,
      "ĠlÃ©gÃ¨rement": 5568,
      "Ġchacun": 5569,
      "ĠMcDonal": 5570,
      "Ġhospital": 5571,
      "Ġblazer": 5572,
      "cture": 5573,
      "dress": 5574,
      "gy": 5575,
      "iettes": 5576,
      "iothÃ¨que": 5577,
      "niture": 5578,
      "pers": 5579,
      "pher": 5580,
      "rir": 5581,
      "vrant": 5582,
      "Ġ!": 5583,
      "Ġsong": 5584,
      "Ġsuc": 5585,
      "unk": 5586,
      "Ġpine": 5587,
      "Ġpuck": 5588,
      "Ġpots": 5589,
      "erial": 5590,
      "erence": 5591,
      "isme": 5592,
      "Ġmort": 5593,
      "Ġfree": 5594,
      "Ġfaux": 5595,
      "Ġhers": 5596,
      "ĠhÃ´": 5597,
      "Ġhip": 5598,
      "Ġli": 5599,
      "Ġlane": 5600,
      "Ġdel": 5601,
      "Ġgall": 5602,
      "Ã©tre": 5603,
      "Ġintent": 5604,
      "Ġblow": 5605,
      "Ġchans": 5606,
      "Ġlave": 5607,
      "Ġnagent": 5608,
      "Ġnarrow": 5609,
      "Ġplac": 5610,
      "rale": 5611,
      "Ġleaving": 5612,
      "ieuse": 5613,
      "Ġtoss": 5614,
      "Ġpeindre": 5615,
      "amis": 5616,
      "Ġtravel": 5617,
      "Ġrough": 5618,
      "Ġprise": 5619,
      "ulaire": 5620,
      "ady": 5621,
      "ader": 5622,
      "ĠÃ©v": 5623,
      "ĠÃ©lÃ¨": 5624,
      "Ġarc": 5625,
      "Ġclient": 5626,
      "Ġportes": 5627,
      "Ġpetting": 5628,
      "Ġmenu": 5629,
      "Ġgroupes": 5630,
      "oca": 5631,
      "Ġcarre": 5632,
      "Ġbron": 5633,
      "Ġbranche": 5634,
      "Ġbrush": 5635,
      "Ġkites": 5636,
      "Ġbuy": 5637,
      "ĠShe": 5638,
      "ĠCrow": 5639,
      "ĠprotÃ©": 5640,
      "uters": 5641,
      "Ġbibl": 5642,
      "Ġcoach": 5643,
      "uba": 5644,
      "ignes": 5645,
      "Ġspinning": 5646,
      "ĠmusÃ©e": 5647,
      "Ġbushes": 5648,
      "ĠÃ©car": 5649,
      "Ġcanal": 5650,
      "Ġdrill": 5651,
      "Ġverse": 5652,
      "Ġmicrophones": 5653,
      "Ġheadband": 5654,
      "Ġrails": 5655,
      "ĠboisÃ©": 5656,
      "ĠbordÃ©": 5657,
      "ĠGr": 5658,
      "ĠtÃ©lÃ©vision": 5659,
      "Ġmoteur": 5660,
      "Ġserve": 5661,
      "Ġimpliqu": 5662,
      "ĠcrÃ¢": 5663,
      "ĠcrÃªte": 5664,
      "Ã©quilibre": 5665,
      "Ġhorseback": 5666,
      "Ġemm": 5667,
      "Ġcrosses": 5668,
      "Ġbikers": 5669,
      "ĠJe": 5670,
      "Ġhillside": 5671,
      "Ġcerem": 5672,
      "lective": 5673,
      "ĠamÃ©ricains": 5674,
      "ĠpoussiÃ©": 5675,
      "Ġsells": 5676,
      "Ġboardwalk": 5677,
      "borhood": 5678,
      "Ġbanan": 5679,
      "Ġmembre": 5680,
      "Ġgrimace": 5681,
      "Ġpaix": 5682,
      "Ġscooters": 5683,
      "Ġstopped": 5684,
      "Ġengag": 5685,
      "ĠBlond": 5686,
      "Ġformation": 5687,
      "arrÃªte": 5688,
      "aisselle": 5689,
      "Ġelectron": 5690,
      "Ġrapidement": 5691,
      "Ġadversaire": 5692,
      "Ġgravier": 5693,
      "amÃ©ricaine": 5694,
      "Ġfroid": 5695,
      "Ġfinger": 5696,
      "ĠdÃ©plac": 5697,
      "Ġpartiellement": 5698,
      "Ġreposent": 5699,
      "Ġenvoie": 5700,
      "Ġmuseum": 5701,
      "Ġautomatique": 5702,
      "Ġincendie": 5703,
      "ĠdorÃ©": 5704,
      "astern": 5705,
      "ĠapprÃ©ciant": 5706,
      "Ġpneu": 5707,
      "Ġarrive": 5708,
      "Ġachetant": 5709,
      "ĠalignÃ©s": 5710,
      "ĠpÃ¢te": 5711,
      "Ġpossibly": 5712,
      "Ġpalet": 5713,
      "Ġbeverage": 5714,
      "Ġpizza": 5715,
      "Ġdonkey": 5716,
      "Ġimposant": 5717,
      "ĠmÃ©lange": 5718,
      "Ġillumin": 5719,
      "ĠJohn": 5720,
      "Ġtrumpet": 5721,
      "ĠvÃ©tÃ©tiste": 5722,
      "ĠtÃ©lÃ©phonique": 5723,
      "Ġquarterback": 5724,
      "Ġtrompette": 5725,
      "origine": 5726,
      "irthday": 5727,
      "Ġentrance": 5728,
      "Ġherself": 5729,
      "ĠÃ©lÃ¨ves": 5730,
      "ĠbibliothÃ¨que": 5731,
      "ĠpoussiÃ©re": 5732,
      "\",": 5733,
      "00": 5734,
      "bles": 5735,
      "cteur": 5736,
      "ciel": 5737,
      "genc": 5738,
      "ially": 5739,
      "liÃ¨re": 5740,
      "tched": 5741,
      "tails": 5742,
      "ui": 5743,
      "Ġemb": 5744,
      "Ġate": 5745,
      "Ġahead": 5746,
      "inte": 5747,
      "anim": 5748,
      "Ġsout": 5749,
      "enger": 5750,
      "Ġtig": 5751,
      "Ġtight": 5752,
      "Ġtorses": 5753,
      "Ġbrow": 5754,
      "Ġcel": 5755,
      "rette": 5756,
      "Ġmall": 5757,
      "Ġmass": 5758,
      "Ġmaman": 5759,
      "Ġfoire": 5760,
      "Ġfancy": 5761,
      "Ġlar": 5762,
      "Ġloung": 5763,
      "ombe": 5764,
      "Ġgas": 5765,
      "irm": 5766,
      "Ġrapp": 5767,
      "ata": 5768,
      "ature": 5769,
      "ĠTexas": 5770,
      "teurs": 5771,
      "Ġstones": 5772,
      "Ġchase": 5773,
      "Ġchocol": 5774,
      "Ġlavant": 5775,
      "Ġnaut": 5776,
      "chron": 5777,
      "Ġplates": 5778,
      "aye": 5779,
      "Ġlevant": 5780,
      "Ġasc": 5781,
      "quel": 5782,
      "onnes": 5783,
      "Ġdoors": 5784,
      "ament": 5785,
      "Ġauto": 5786,
      "Ġmaroon": 5787,
      "Ġseats": 5788,
      "illante": 5789,
      "Ġbean": 5790,
      "Ġfaite": 5791,
      "Ġfaiblement": 5792,
      "Ġeff": 5793,
      "urses": 5794,
      "andise": 5795,
      "endre": 5796,
      "Ġclay": 5797,
      "Ġclap": 5798,
      "iddle": 5799,
      "ĠLarge": 5800,
      "ĠLady": 5801,
      "boat": 5802,
      "Ġskates": 5803,
      "Ġcaresse": 5804,
      "ĠSk": 5805,
      "ĠPar": 5806,
      "Ġflan": 5807,
      "Ġflanc": 5808,
      "Ġscol": 5809,
      "Ġscouts": 5810,
      "ĠMus": 5811,
      "ĠMoyen": 5812,
      "ĠcÃ´ne": 5813,
      "ĠCoca": 5814,
      "Ġsnack": 5815,
      "Ġcobb": 5816,
      "Ġador": 5817,
      "Ġchaque": 5818,
      "Ġbattre": 5819,
      "ĠvÃªtement": 5820,
      "Ġhandstand": 5821,
      "ĠposÃ©": 5822,
      "Ġspread": 5823,
      "Ġboucl": 5824,
      "Ġhelps": 5825,
      "Ġfencing": 5826,
      "Ġjournaux": 5827,
      "Ġserre": 5828,
      "Ġserrant": 5829,
      "actory": 5830,
      "Ġafrican": 5831,
      "Ã©ration": 5832,
      "Ġdessous": 5833,
      "Ġplancher": 5834,
      "onneuse": 5835,
      "ĠHe": 5836,
      "Ġpanneaux": 5837,
      "Ġemp": 5838,
      "Ġsof": 5839,
      "Ġindust": 5840,
      "Ġdishes": 5841,
      "Ġchanteuse": 5842,
      "Ġmaisons": 5843,
      "Ġgriller": 5844,
      "otel": 5845,
      "Ġvitre": 5846,
      "Ġsmoke": 5847,
      "Ġpouce": 5848,
      "Ġfolding": 5849,
      "Ġbuckets": 5850,
      "ĠtombÃ©": 5851,
      "Ġnavy": 5852,
      "Ġfinis": 5853,
      "Ġtattooed": 5854,
      "Ġplongeant": 5855,
      "Ġboueuse": 5856,
      "Ġrubber": 5857,
      "Ġaccroupie": 5858,
      "Ġcabane": 5859,
      "Ġmixing": 5860,
      "Ġafricaine": 5861,
      "Ġcomplete": 5862,
      "Ġcarnaval": 5863,
      "Ġcoiffure": 5864,
      "Ġminiat": 5865,
      "ĠdÃ©place": 5866,
      "Ġcollection": 5867,
      "Ġpuppy": 5868,
      "Ġbadge": 5869,
      "Ġbottles": 5870,
      "Ġindoors": 5871,
      "ĠÃ©trange": 5872,
      "ĠaccrochÃ©": 5873,
      "Ġchains": 5874,
      "Ġcelebrating": 5875,
      "Ġcardboard": 5876,
      "ĠagenouillÃ©e": 5877,
      "ĠgÃ©ant": 5878,
      "Ġmaquillage": 5879,
      "Ġsouffle": 5880,
      "Ġbassin": 5881,
      "apprÃªtent": 5882,
      "Ġbillard": 5883,
      "Ġenseigne": 5884,
      "Ġdoll": 5885,
      "Ġornate": 5886,
      "Ġtropical": 5887,
      "Ġmoustache": 5888,
      "Ġmostly": 5889,
      "Ġmotorcyclist": 5890,
      "Ġajuste": 5891,
      "Ġalpiniste": 5892,
      "Ġsynchron": 5893,
      "ĠiP": 5894,
      "Ġlampe": 5895,
      "Ġtramway": 5896,
      "Ġlanter": 5897,
      "Ġbijoux": 5898,
      "Ġsquatting": 5899,
      "ĠrÃ©cipient": 5900,
      "Ġoutstretched": 5901,
      "niversaire": 5902,
      "Ġsemi": 5903,
      "Ġenvelop": 5904,
      "Ġneighborhood": 5905,
      "Ġpoitrine": 5906,
      "Ġwakeboard": 5907,
      "pherd": 5908,
      "Ġchanson": 5909,
      "gency": 5910,
      "Ġatelier": 5911,
      "Ġnautique": 5912,
      "ci": 5913,
      "dans": 5914,
      "die": 5915,
      "gÃ©e": 5916,
      "hÃ´": 5917,
      "oit": 5918,
      "rary": 5919,
      "uum": 5920,
      "yle": 5921,
      "âĢ": 5922,
      "Ġ9": 5923,
      "Ġir": 5924,
      "Ġpump": 5925,
      "Ġtond": 5926,
      "once": 5927,
      "Ġcoc": 5928,
      "Ġcalm": 5929,
      "ĠcÅĵur": 5930,
      "lection": 5931,
      "oud": 5932,
      "Ġwife": 5933,
      "isÃ©": 5934,
      "isation": 5935,
      "Ġmun": 5936,
      "Ġhous": 5937,
      "Ġlines": 5938,
      "Ġlisent": 5939,
      "ĠUS": 5940,
      "Ġdedans": 5941,
      "ĠAm": 5942,
      "Ã©ment": 5943,
      "headed": 5944,
      "urf": 5945,
      "Ġrad": 5946,
      "Ġrink": 5947,
      "Ġrally": 5948,
      "Ġodd": 5949,
      "Ġvente": 5950,
      "acelle": 5951,
      "Ġbless": 5952,
      "Ġblows": 5953,
      "Ġstrap": 5954,
      "Ġchoir": 5955,
      "Ġnote": 5956,
      "Ġnacelle": 5957,
      "Ġdest": 5958,
      "iche": 5959,
      "icip": 5960,
      "ically": 5961,
      "Ġgrille": 5962,
      "ĠreÃ§": 5963,
      "quare": 5964,
      "oping": 5965,
      "Ġlett": 5966,
      "Ġleading": 5967,
      "Ã¨le": 5968,
      "eless": 5969,
      "Ġpee": 5970,
      "Ġdoctor": 5971,
      "amuse": 5972,
      "Ġmarine": 5973,
      "ounds": 5974,
      "herman": 5975,
      "imon": 5976,
      "imate": 5977,
      "ains": 5978,
      "resses": 5979,
      "Ġroues": 5980,
      "Ġarme": 5981,
      "Ġtron": 5982,
      "Ġcarving": 5983,
      "Ġbrouette": 5984,
      "Ġkite": 5985,
      "Ã´t": 5986,
      "ĠStud": 5987,
      "ĠSquare": 5988,
      "ared": 5989,
      "Ġscuba": 5990,
      "Ġprocess": 5991,
      "ĠFem": 5992,
      "Ġbars": 5993,
      "Ġbarres": 5994,
      "Ġmontgolf": 5995,
      "Ġspace": 5996,
      "Ġitem": 5997,
      "Ġblondes": 5998,
      "ways": 5999,
      "Ġamid": 6000,
      "Ġpartout": 6001,
      "Ġguitarist": 6002,
      "ĠIt": 6003,
      "Ġpatau": 6004,
      "ĠrÃ©g": 6005,
      "Ġcoloring": 6006,
      "ĠAsiatiques": 6007,
      "ĠboisÃ©e": 6008,
      "Ġagric": 6009,
      "lants": 6010,
      "Ġpieces": 6011,
      "Ġbagp": 6012,
      "Ġswimmer": 6013,
      "Ġvisible": 6014,
      "Ġpapillon": 6015,
      "Ġcaisses": 6016,
      "Ġstripes": 6017,
      "Ġimages": 6018,
      "Ġchaude": 6019,
      "ĠcrÃ©p": 6020,
      "ĠÃ©tal": 6021,
      "Ġbowls": 6022,
      "Ġpaniers": 6023,
      "arium": 6024,
      "Ġcontreb": 6025,
      "athers": 6026,
      "Ġfiretruck": 6027,
      "Ġcreuse": 6028,
      "ĠtirÃ©": 6029,
      "Ġsleevel": 6030,
      "Ġcerf": 6031,
      "ĠRun": 6032,
      "Ġmeub": 6033,
      "Ġtourist": 6034,
      "Ġnewly": 6035,
      "corps": 6036,
      "Ġboxing": 6037,
      "Ġgymnas": 6038,
      "Ġbonnets": 6039,
      "Ġstares": 6040,
      "Ġstarting": 6041,
      "Ġobservent": 6042,
      "Ġturning": 6043,
      "ĠpÃªcheur": 6044,
      "Ġsmokes": 6045,
      "Ġuniformed": 6046,
      "Ġrocheux": 6047,
      "Ġbulld": 6048,
      "Ġreflective": 6049,
      "ĠlÃ¨vent": 6050,
      "Ġflipping": 6051,
      "Ġscenery": 6052,
      "Ġbelt": 6053,
      "Ġpaddle": 6054,
      "ĠarrÃª": 6055,
      "Ġinspecting": 6056,
      "Ġinspecte": 6057,
      "Ġtatouages": 6058,
      "Ġcheerleaders": 6059,
      "Ġtattoos": 6060,
      "Ġcalf": 6061,
      "ĠattachÃ©s": 6062,
      "Ġbalances": 6063,
      "Ġpinata": 6064,
      "volant": 6065,
      "Ġfunny": 6066,
      "Ġhoops": 6067,
      "Ġgymnastique": 6068,
      "entraÃ®ne": 6069,
      "Ġburg": 6070,
      "Ġattention": 6071,
      "Ġbonb": 6072,
      "Ġmedical": 6073,
      "Ġpalmiers": 6074,
      "Ġprofessionnel": 6075,
      "Ġcrouching": 6076,
      "Ġheureuse": 6077,
      "Ġreposant": 6078,
      "Ġrecord": 6079,
      "Ġaccroch": 6080,
      "Ġexplor": 6081,
      "Ġgreat": 6082,
      "Ġsavoure": 6083,
      "Ġaquarium": 6084,
      "Ġvacuum": 6085,
      "Ġstretching": 6086,
      "Ġlampad": 6087,
      "vÃªtement": 6088,
      "Ġhugs": 6089,
      "Ġvictoire": 6090,
      "Ġchiot": 6091,
      "ĠÃ©lÃ©g": 6092,
      "Ġombrelle": 6093,
      "Ġvoyage": 6094,
      "Ġapartment": 6095,
      "Ġconducteur": 6096,
      "Ġfusil": 6097,
      "Ġcrafts": 6098,
      "ĠaÃ©rienne": 6099,
      "Ġfirst": 6100,
      "Ġmannequin": 6101,
      "Ġattrapant": 6102,
      "ĠadossÃ©": 6103,
      "Ġdistribu": 6104,
      "Ġgrinding": 6105,
      "âĢĻ": 6106,
      "Ġsleeveless": 6107,
      "aked": 6108,
      "bag": 6109,
      "can": 6110,
      "dles": 6111,
      "fare": 6112,
      "ham": 6113,
      "honne": 6114,
      "lÃ©e": 6115,
      "town": 6116,
      "uch": 6117,
      "utes": 6118,
      "val": 6119,
      "Ġing": 6120,
      "Ġic": 6121,
      "Ġxy": 6122,
      "inture": 6123,
      "instrum": 6124,
      "any": 6125,
      "Ġdrap": 6126,
      "Ġdames": 6127,
      "Ġsen": 6128,
      "Ġsang": 6129,
      "Ġsym": 6130,
      "Ġpoule": 6131,
      "Ġpatch": 6132,
      "Ġpaire": 6133,
      "Ġbirthday": 6134,
      "Ġunic": 6135,
      "ouc": 6136,
      "Ġweat": 6137,
      "arb": 6138,
      "arri": 6139,
      "arbitre": 6140,
      "Ġmug": 6141,
      "Ġfau": 6142,
      "Ġhus": 6143,
      "Ġdec": 6144,
      "Ġdead": 6145,
      "Ġdemonstr": 6146,
      "Ġgot": 6147,
      "Ġrase": 6148,
      "Ġencl": 6149,
      "ility": 6150,
      "Ġvent": 6151,
      "Ġventre": 6152,
      "Ġvaisselle": 6153,
      "acting": 6154,
      "ĠTandis": 6155,
      "auds": 6156,
      "Ġstom": 6157,
      "Ġchick": 6158,
      "ĠchÃ¢teau": 6159,
      "Ġnigh": 6160,
      "icket": 6161,
      "oly": 6162,
      "olog": 6163,
      "ourent": 6164,
      "Ġrele": 6165,
      "chouc": 6166,
      "outchouc": 6167,
      "opoly": 6168,
      "Ġlegging": 6169,
      "Ġleaf": 6170,
      "ief": 6171,
      "uscule": 6172,
      "Ġtoge": 6173,
      "Ġtoges": 6174,
      "wood": 6175,
      "Ġparquet": 6176,
      "Ġmarbre": 6177,
      "abri": 6178,
      "Ġseem": 6179,
      "Ġseaux": 6180,
      "assent": 6181,
      "Ġchee": 6182,
      "ĠÃ©g": 6183,
      "Ġhistor": 6184,
      "aps": 6185,
      "Ġclaire": 6186,
      "Ġcouche": 6187,
      "Ġskieurs": 6188,
      "Ġbrace": 6189,
      "Ġforaine": 6190,
      "Ġpoteaux": 6191,
      "Ġmaj": 6192,
      "ĠmaÃ¯": 6193,
      "ĠflÃ»te": 6194,
      "Ġfluffy": 6195,
      "ession": 6196,
      "Ġconstr": 6197,
      "ĠMiddle": 6198,
      "ĠCity": 6199,
      "ighter": 6200,
      "Ġbacks": 6201,
      "Ġbalding": 6202,
      "boarder": 6203,
      "Ġjaill": 6204,
      "ipping": 6205,
      "ttime": 6206,
      "Ġperd": 6207,
      "Ġtext": 6208,
      "ĠexÃ©c": 6209,
      "Ġvoies": 6210,
      "ively": 6211,
      "ĠÃ©col": 6212,
      "Ġviewing": 6213,
      "Ġcanard": 6214,
      "Ġbrique": 6215,
      "uyant": 6216,
      "Ġspeed": 6217,
      "Ġcomputers": 6218,
      "oyer": 6219,
      "Ġpartially": 6220,
      "Ġcontrol": 6221,
      "Ġraises": 6222,
      "Ġsales": 6223,
      "Ġbande": 6224,
      "Ġbagu": 6225,
      "Ġpapa": 6226,
      "Ġsignal": 6227,
      "Ġcaoutchouc": 6228,
      "ĠmÃ©tier": 6229,
      "Ġnourrisson": 6230,
      "Ġchaud": 6231,
      "Ġcrane": 6232,
      "ĠcrÃ¨me": 6233,
      "Ã©cr": 6234,
      "permÃ©": 6235,
      "flops": 6236,
      "ĠallongÃ©es": 6237,
      "Ġmonoc": 6238,
      "Ġcrew": 6239,
      "Ġjume": 6240,
      "Ġsortie": 6241,
      "Ġcamions": 6242,
      "Ġstairway": 6243,
      "Ġmatel": 6244,
      "Ġcraie": 6245,
      "Ġcuts": 6246,
      "embrasure": 6247,
      "Ġobjects": 6248,
      "Ġwheels": 6249,
      "born": 6250,
      "Ġbanner": 6251,
      "Ġnettoient": 6252,
      "mense": 6253,
      "Ġinterag": 6254,
      "Ġmember": 6255,
      "Ġrainy": 6256,
      "Ġclowns": 6257,
      "monica": 6258,
      "Ġdinos": 6259,
      "Ġlistens": 6260,
      "Ġindividus": 6261,
      "Ġvegetable": 6262,
      "Ġvendeurs": 6263,
      "Ġfinish": 6264,
      "Ġservice": 6265,
      "ĠGirls": 6266,
      "Ġcirculant": 6267,
      "Ġtied": 6268,
      "ĠfumÃ©e": 6269,
      "Ġartistique": 6270,
      "Ġsecond": 6271,
      "ĠrÃ©parant": 6272,
      "ractÃ©e": 6273,
      "Ġboutique": 6274,
      "Ġbroch": 6275,
      "Ġbroken": 6276,
      "Ġcabine": 6277,
      "Ġtraditionnel": 6278,
      "ĠexpÃ©ri": 6279,
      "Ġreceveur": 6280,
      "Ġbarrel": 6281,
      "Ġbenne": 6282,
      "Ġdiscussing": 6283,
      "Ġexaminant": 6284,
      "ĠÃ©coutent": 6285,
      "Ġapproaching": 6286,
      "Ġspraying": 6287,
      "Ġcandles": 6288,
      "Ġfurniture": 6289,
      "ĠagenouillÃ©": 6290,
      "Ġfollowing": 6291,
      "ĠdÃ©guisÃ©s": 6292,
      "Ġgreyh": 6293,
      "Ġfanfare": 6294,
      "Ġcornem": 6295,
      "Ġconference": 6296,
      "Ġsprinkler": 6297,
      "ĠtraÃ®neau": 6298,
      "Ġlibrary": 6299,
      "Ġethnic": 6300,
      "Ġmoderne": 6301,
      "ĠachÃ¨tent": 6302,
      "Ġlaverie": 6303,
      "Ġborde": 6304,
      "Ġmoped": 6305,
      "ĠÃ©cossaise": 6306,
      "ĠcontrÃ´le": 6307,
      "Ġmeeting": 6308,
      "Ġsimilar": 6309,
      "ĠdÃ©lab": 6310,
      "ĠÃ©crivant": 6311,
      "Ġbougies": 6312,
      "ĠclÃ´turÃ©e": 6313,
      "ĠentraÃ®neur": 6314,
      "Ġdimly": 6315,
      "Ġfonct": 6316,
      "Ġinfirm": 6317,
      "Ġbuffet": 6318,
      "Ġbanderole": 6319,
      "ĠHomme": 6320,
      "Ġmotorbike": 6321,
      "Ġbaignoire": 6322,
      "ĠdÃ©contractÃ©e": 6323,
      "Ġintently": 6324,
      "Ġsofa": 6325,
      "Ġdestin": 6326,
      "ĠcrÃ©puscule": 6327,
      "Ġgymnasium": 6328,
      "honneur": 6329,
      "Ġxyl": 6330,
      "Ġnighttime": 6331,
      "ĠmaÃ¯s": 6332,
      "'t": 6333,
      "Amer": 6334,
      "bing": 6335,
      "car": 6336,
      "cÃ´": 6337,
      "porte": 6338,
      "tion": 6339,
      "tail": 6340,
      "upe": 6341,
      "yd": 6342,
      "Ġiron": 6343,
      "Ġaband": 6344,
      "Ġdent": 6345,
      "Ġdus": 6346,
      "Ġsque": 6347,
      "Ġsam": 6348,
      "Ġsad": 6349,
      "Ġsne": 6350,
      "envers": 6351,
      "Ġpis": 6352,
      "Ġpal": 6353,
      "Ġpress": 6354,
      "Ġticket": 6355,
      "erous": 6356,
      "Ġcrie": 6357,
      "isÃ©e": 6358,
      "Ġmau": 6359,
      "Ġmore": 6360,
      "Ġfet": 6361,
      "ĠfraÃ®": 6362,
      "Ġhuit": 6363,
      "Ġlou": 6364,
      "ĠAd": 6365,
      "Ġge": 6366,
      "Ġgeste": 6367,
      "Ã©n": 6368,
      "Ã©le": 6369,
      "Ã©tud": 6370,
      "Ġinstru": 6371,
      "urity": 6372,
      "mel": 6373,
      "irs": 6374,
      "ires": 6375,
      "irurg": 6376,
      "Ġrav": 6377,
      "Ġraces": 6378,
      "Ġtheater": 6379,
      "Ġann": 6380,
      "Ġanti": 6381,
      "Ġmanche": 6382,
      "tel": 6383,
      "Ġcharge": 6384,
      "Ġchirurg": 6385,
      "Ġlav": 6386,
      "Ġnon": 6387,
      "Ġnets": 6388,
      "ola": 6389,
      "ourne": 6390,
      "Ġplumes": 6391,
      "ĠlevÃ©s": 6392,
      "Ġlecture": 6393,
      "estone": 6394,
      "ielle": 6395,
      "Ã¨g": 6396,
      "Ġshades": 6397,
      "Ġshaped": 6398,
      "Ġshaved": 6399,
      "rim": 6400,
      "Ġjeep": 6401,
      "Ġmarquer": 6402,
      "ounge": 6403,
      "abor": 6404,
      "ills": 6405,
      "Ġassistant": 6406,
      "Ġrob": 6407,
      "Ġgarde": 6408,
      "adolesc": 6409,
      "ney": 6410,
      "Ġclut": 6411,
      "idi": 6412,
      "Ġtrench": 6413,
      "Ġduck": 6414,
      "ifle": 6415,
      "Ġgroups": 6416,
      "achers": 6417,
      "Ġcarry": 6418,
      "elling": 6419,
      "Ġforward": 6420,
      "Ġkimon": 6421,
      "Ġtrains": 6422,
      "Ġtraining": 6423,
      "ension": 6424,
      "ĠSoc": 6425,
      "rosage": 6426,
      "ardeurs": 6427,
      "Ġcomfort": 6428,
      "Ġscie": 6429,
      "phal": 6430,
      "Ġcastle": 6431,
      "Ġcasino": 6432,
      "Ġappar": 6433,
      "Ġbarber": 6434,
      "Ġsmaller": 6435,
      "escrime": 6436,
      "Ġspoon": 6437,
      "ĠextÃ©rieure": 6438,
      "eath": 6439,
      "ronique": 6440,
      "Ġpassants": 6441,
      "Ġallum": 6442,
      "ĠIs": 6443,
      "ĠWalm": 6444,
      "dessous": 6445,
      "Ġsocial": 6446,
      "Ġraising": 6447,
      "escalier": 6448,
      "Ġbandeau": 6449,
      "ĠGrou": 6450,
      "Ġslight": 6451,
      "Ġpapers": 6452,
      "Ġartific": 6453,
      "ĠimpermÃ©": 6454,
      "Ġimmense": 6455,
      "Ġprofesse": 6456,
      "Ġramassant": 6457,
      "Ġdiscute": 6458,
      "Ġsteel": 6459,
      "Ġsportif": 6460,
      "Ġbikinis": 6461,
      "ĠanimÃ©": 6462,
      "Ġcatcher": 6463,
      "Ġceinture": 6464,
      "Ġproduisent": 6465,
      "Ġfireman": 6466,
      "Ġdispos": 6467,
      "Ġconverse": 6468,
      "Ġtentes": 6469,
      "Ġmaterial": 6470,
      "Ġsoude": 6471,
      "Ġpush": 6472,
      "Ġretur": 6473,
      "Ġcuill": 6474,
      "Ġparticipate": 6475,
      "Ġobserving": 6476,
      "borne": 6477,
      "Ġturns": 6478,
      "Ġrainbow": 6479,
      "Ġplante": 6480,
      "ĠpoupÃ©e": 6481,
      "Ġhits": 6482,
      "Ġtrailer": 6483,
      "Ġdrop": 6484,
      "ĠÃ©quipements": 6485,
      "ussi": 6486,
      "Ġguide": 6487,
      "ĠrÃ©col": 6488,
      "ĠlÃ¨vres": 6489,
      "Ġflowered": 6490,
      "afe": 6491,
      "Ġengaged": 6492,
      "accroche": 6493,
      "ĠrÃ©unissent": 6494,
      "Ġproduisant": 6495,
      "ĠpenchÃ©e": 6496,
      "Ġwrestle": 6497,
      "Ġcalled": 6498,
      "Ġsecurity": 6499,
      "ĠdÃ©corÃ©": 6500,
      "Ġgravissant": 6501,
      "embrasser": 6502,
      "Ġdonner": 6503,
      "entraÃ®nant": 6504,
      "Ġflotte": 6505,
      "Ġfroide": 6506,
      "Ġcerceau": 6507,
      "Ġamongst": 6508,
      "Ġdipl": 6509,
      "Ġdivert": 6510,
      "Ġbeneath": 6511,
      "Ġdessinant": 6512,
      "Ġnecklace": 6513,
      "Ġescaladent": 6514,
      "Ġsemblant": 6515,
      "Ġrenvers": 6516,
      "Ġnotes": 6517,
      "Ã©loignant": 6518,
      "Ġshovels": 6519,
      "Ġcollege": 6520,
      "Ġbadauds": 6521,
      "Ġexposition": 6522,
      "Ġencour": 6523,
      "Ġfollows": 6524,
      "Ġadvertising": 6525,
      "Ġhorn": 6526,
      "ĠWhile": 6527,
      "ĠathlÃ¨tes": 6528,
      "Ġacheter": 6529,
      "Ġpagaie": 6530,
      "Ġbillboard": 6531,
      "Ġliquide": 6532,
      "Ġliquid": 6533,
      "Ġelephant": 6534,
      "Ġembrasse": 6535,
      "vÃªtements": 6536,
      "Ġvalise": 6537,
      "Ġcrayon": 6538,
      "Ġcrayons": 6539,
      "Ġmodern": 6540,
      "ĠachÃ¨te": 6541,
      "Ġdocuments": 6542,
      "Ġpratiquent": 6543,
      "ĠdÃ©coupe": 6544,
      "Ġapplaudissent": 6545,
      "Ġbinoc": 6546,
      "ĠdÃ©tendent": 6547,
      "Ġancien": 6548,
      "ĠLondon": 6549,
      "Ġtelevision": 6550,
      "Ġcamel": 6551,
      "Ġcreusant": 6552,
      "Ġdomin": 6553,
      "Ġprobablement": 6554,
      "Ġteammate": 6555,
      "ĠfÃ©minin": 6556,
      "Ġribbon": 6557,
      "arrÃªtent": 6558,
      "ĠmÃ©decin": 6559,
      "Ġjaponais": 6560,
      "Ġjewelry": 6561,
      "ĠElmo": 6562,
      "Ġsculptures": 6563,
      "ĠCrowd": 6564,
      "ĠÃ©cartÃ©s": 6565,
      "ĠcrÃ¢ne": 6566,
      "Ġelectronic": 6567,
      "Ġcelui": 6568,
      "Ġlounging": 6569,
      "Ġscolaire": 6570,
      "Ġminiature": 6571,
      "ĠrÃ©gion": 6572,
      "Ġbonbons": 6573,
      "Ġlampadaire": 6574,
      "Ġunicycle": 6575,
      "Ġweather": 6576,
      "arrivÃ©e": 6577,
      "Ġstomach": 6578,
      "Ġleggings": 6579,
      "Ġmonocycle": 6580,
      "Ġxylophone": 6581,
      "Ġpisto": 6582,
      "ĠWalmart": 6583,
      "bs": 6584,
      "barrow": 6585,
      "cool": 6586,
      "gie": 6587,
      "gile": 6588,
      "iam": 6589,
      "iage": 6590,
      "lit": 6591,
      "lestone": 6592,
      "niÃ¨re": 6593,
      "pple": 6594,
      "pies": 6595,
      "uent": 6596,
      "wed": 6597,
      "Ġ'": 6598,
      "Ġais": 6599,
      "Ġari": 6600,
      "Ġaussi": 6601,
      "iner": 6602,
      "anch": 6603,
      "Ġsir": 6604,
      "Ġsack": 6605,
      "ĠsÃ¨che": 6606,
      "Ġsilly": 6607,
      "Ġping": 6608,
      "Ġpower": 6609,
      "Ġtents": 6610,
      "Ġtug": 6611,
      "Ġbac": 6612,
      "Ġbong": 6613,
      "Ġbav": 6614,
      "Ġbross": 6615,
      "erleaders": 6616,
      "Ġcul": 6617,
      "Ġcree": 6618,
      "Ġunivers": 6619,
      "lette": 6620,
      "Ġwig": 6621,
      "arre": 6622,
      "arves": 6623,
      "Ġmes": 6624,
      "Ġfle": 6625,
      "Ġfit": 6626,
      "itors": 6627,
      "Ġgown": 6628,
      "Ġgift": 6629,
      "ora": 6630,
      "irted": 6631,
      "Ġrick": 6632,
      "ato": 6633,
      "ately": 6634,
      "ilst": 6635,
      "Ġjob": 6636,
      "Ġant": 6637,
      "uellement": 6638,
      "Ġvous": 6639,
      "rose": 6640,
      "empl": 6641,
      "ashed": 6642,
      "ĠTe": 6643,
      "ĠTour": 6644,
      "ĠTimes": 6645,
      "aul": 6646,
      "Ġchois": 6647,
      "Ġnaked": 6648,
      "Ġgrue": 6649,
      "oll": 6650,
      "Ġplais": 6651,
      "Ġplaces": 6652,
      "Ġlet": 6653,
      "Ġlequel": 6654,
      "Ġwhilst": 6655,
      "Ġshare": 6656,
      "Ġshakes": 6657,
      "usi": 6658,
      "Ġpeering": 6659,
      "aming": 6660,
      "ount": 6661,
      "igu": 6662,
      "Ġseas": 6663,
      "Ġquick": 6664,
      "Ġassemb": 6665,
      "aint": 6666,
      "ĠgarÃ©": 6667,
      "ĠgarÃ©s": 6668,
      "ulars": 6669,
      "Ġoutil": 6670,
      "ĠÃ©vent": 6671,
      "Ġfake": 6672,
      "Ġarrose": 6673,
      "shaw": 6674,
      "Ġredheaded": 6675,
      "Ġcouteau": 6676,
      "Ġskie": 6677,
      "oned": 6678,
      "Ġdowntown": 6679,
      "Ġcaress": 6680,
      "Ġpours": 6681,
      "Ġpoor": 6682,
      "ĠSub": 6683,
      "ĠSoon": 6684,
      "ĠPh": 6685,
      "ĠPol": 6686,
      "Ġscoop": 6687,
      "ivre": 6688,
      "ĠMon": 6689,
      "Ġbystand": 6690,
      "edo": 6691,
      "ĠCau": 6692,
      "Ġupon": 6693,
      "Ġprog": 6694,
      "Ġproch": 6695,
      "Ġbiking": 6696,
      "Ġsnowsh": 6697,
      "Ġcasual": 6698,
      "Ġapple": 6699,
      "Ġairborne": 6700,
      "tty": 6701,
      "Ġtroph": 6702,
      "adeaux": 6703,
      "Ġspat": 6704,
      "ĠBear": 6705,
      "Ġpassenger": 6706,
      "Ġamie": 6707,
      "Ġpartagent": 6708,
      "Ġpartageant": 6709,
      "Ġwading": 6710,
      "iants": 6711,
      "Ġboueux": 6712,
      "ĠbouÃ©e": 6713,
      "Ġcontenant": 6714,
      "Ġcameras": 6715,
      "ggy": 6716,
      "Ġraquettes": 6717,
      "ĠfenÃªt": 6718,
      "Ġcorps": 6719,
      "Ġmod": 6720,
      "appy": 6721,
      "approche": 6722,
      "ĠcollÃ¨g": 6723,
      "Ġvoler": 6724,
      "Ġvolent": 6725,
      "Ġshops": 6726,
      "Ġservant": 6727,
      "Ġcaps": 6728,
      "ĠÃ©tend": 6729,
      "Ġprofond": 6730,
      "Ġloading": 6731,
      "obile": 6732,
      "Ġviolets": 6733,
      "Ġveau": 6734,
      "izing": 6735,
      "ĠJeng": 6736,
      "Ġtourists": 6737,
      "Ġnewborn": 6738,
      "Ġtribal": 6739,
      "Ġcraw": 6740,
      "Ġbrete": 6741,
      "ĠentourÃ©s": 6742,
      "Åĵil": 6743,
      "Ġfisherman": 6744,
      "Ġretir": 6745,
      "Ġcuire": 6746,
      "ĠferrÃ©e": 6747,
      "Ġcowboys": 6748,
      "Ġwheelbarrow": 6749,
      "Ġforestier": 6750,
      "Ġphotographed": 6751,
      "Ġlifting": 6752,
      "Ġinteracting": 6753,
      "Ġpottery": 6754,
      "Ġcupc": 6755,
      "Ġcharrette": 6756,
      "Ġbulle": 6757,
      "Ġglove": 6758,
      "ĠcuisiniÃ¨re": 6759,
      "Ġtombant": 6760,
      "Ġengine": 6761,
      "Ġweaving": 6762,
      "chestre": 6763,
      "Ġtemple": 6764,
      "Ġsplashes": 6765,
      "Ġpenchant": 6766,
      "ĠdÃ©garn": 6767,
      "Ġcloseup": 6768,
      "ĠÃ©lectronique": 6769,
      "Ġrapides": 6770,
      "entraÃ®nement": 6771,
      "Ġreceiving": 6772,
      "Ġlogo": 6773,
      "Ġdough": 6774,
      "Ġdouble": 6775,
      "Ġstraight": 6776,
      "alloween": 6777,
      "ĠargentÃ©": 6778,
      "Ġcoiffe": 6779,
      "ĠcÃ¢bles": 6780,
      "Ġtrunk": 6781,
      "Ġguns": 6782,
      "Ġgestes": 6783,
      "Ġprotesting": 6784,
      "Ġpigeon": 6785,
      "Ġpyram": 6786,
      "Ġfollow": 6787,
      "Ġconstruisant": 6788,
      "Ġrepairs": 6789,
      "Ġpneus": 6790,
      "Ġcitrou": 6791,
      "Ġfeather": 6792,
      "Ġglacier": 6793,
      "sleeve": 6794,
      "Ġpillow": 6795,
      "Ġballerina": 6796,
      "Ġadmiring": 6797,
      "Ġnuageux": 6798,
      "Ġmascot": 6799,
      "ĠprÃ©sentation": 6800,
      "Ġdocument": 6801,
      "Ġretournant": 6802,
      "ĠCheerleaders": 6803,
      "Ġtarget": 6804,
      "Ġscientifique": 6805,
      "ĠcomposÃ©": 6806,
      "Ġchorale": 6807,
      "Ġleads": 6808,
      "ĠrÃ©pÃ¨": 6809,
      "ĠthÃ©Ã¢tre": 6810,
      "ĠfrisÃ©s": 6811,
      "pirateur": 6812,
      "Ġpirate": 6813,
      "Ġangel": 6814,
      "Ġcongreg": 6815,
      "ĠplongÃ©e": 6816,
      "Ġtranqu": 6817,
      "colored": 6818,
      "ĠintÃ©g": 6819,
      "ĠcoÃ©quipier": 6820,
      "Ġattraction": 6821,
      "Ġappareils": 6822,
      "Ġrusses": 6823,
      "horizon": 6824,
      "ĠMcDonald": 6825,
      "ĠprotÃ©ger": 6826,
      "Ġcobblestone": 6827,
      "Ġhouses": 6828,
      "ĠStudents": 6829,
      "Ġbulldo": 6830,
      "ĠÃ©galement": 6831,
      "Ġbordeaux": 6832,
      "Ġdestination": 6833,
      "cÃ´tÃ©": 6834,
      "ĠSoccer": 6835,
      "Ġslightly": 6836,
      "ĠimpermÃ©able": 6837,
      "Ġprofesseur": 6838,
      "Ġbinoculars": 6839,
      "Ġaisle": 6840,
      "Ġrickshaw": 6841,
      "ĠfenÃªtres": 6842,
      "ĠJenga": 6843,
      "ĠdÃ©garni": 6844,
      "As": 6845,
      "aÃ®": 6846,
      "cour": 6847,
      "eled": 6848,
      "fri": 6849,
      "gos": 6850,
      "gles": 6851,
      "hab": 6852,
      "hill": 6853,
      "my": 6854,
      "pit": 6855,
      "pie": 6856,
      "sing": 6857,
      "ually": 6858,
      "venant": 6859,
      "vrier": 6860,
      "ys": 6861,
      "zen": 6862,
      "Ġur": 6863,
      "Ġump": 6864,
      "Ġours": 6865,
      "Ġaim": 6866,
      "Ġabr": 6867,
      "Ġaident": 6868,
      "ĠaÃ©roport": 6869,
      "anad": 6870,
      "anniversaire": 6871,
      "Ġdot": 6872,
      "ĠsÃ©rie": 6873,
      "undy": 6874,
      "env": 6875,
      "ĠpÃ©t": 6876,
      "Ġtonde": 6877,
      "Ġbit": 6878,
      "Ġbille": 6879,
      "ero": 6880,
      "Ġcall": 6881,
      "Ġciv": 6882,
      "Ġcock": 6883,
      "Ġcasser": 6884,
      "Ġwings": 6885,
      "isting": 6886,
      "arrosage": 6887,
      "Ġmis": 6888,
      "Ġmay": 6889,
      "Ġmos": 6890,
      "Ġmousse": 6891,
      "Ġfourr": 6892,
      "Ġfactory": 6893,
      "itu": 6894,
      "iter": 6895,
      "Ġhun": 6896,
      "Ġlion": 6897,
      "Ġlower": 6898,
      "Ġlounge": 6899,
      "omat": 6900,
      "omne": 6901,
      "Ġdebr": 6902,
      "Ġdemand": 6903,
      "ĠAu": 6904,
      "Ġgag": 6905,
      "Ġgross": 6906,
      "Ã©ros": 6907,
      "ĠintÃ©rieure": 6908,
      "orn": 6909,
      "orchestre": 6910,
      "Ġrag": 6911,
      "Ġrange": 6912,
      "Ġresp": 6913,
      "atric": 6914,
      "atteindre": 6915,
      "Ġoven": 6916,
      "Ġans": 6917,
      "acles": 6918,
      "ĠsurÃ©le": 6919,
      "aucorps": 6920,
      "ĠchÃ¨": 6921,
      "Ġgrind": 6922,
      "opard": 6923,
      "Ġlear": 6924,
      "Ġleot": 6925,
      "Ġshining": 6926,
      "ancing": 6927,
      "rimÃ©": 6928,
      "Ġsection": 6929,
      "ĠgarÃ©e": 6930,
      "Ġrouler": 6931,
      "Ġpraying": 6932,
      "Ġchecks": 6933,
      "ads": 6934,
      "Ġbec": 6935,
      "Ġthou": 6936,
      "Ġbleachers": 6937,
      "Ġclar": 6938,
      "Ġtenu": 6939,
      "ined": 6940,
      "Ġcourte": 6941,
      "ocal": 6942,
      "ocking": 6943,
      "occup": 6944,
      "Ġskin": 6945,
      "Ġskater": 6946,
      "Ġbrillante": 6947,
      "style": 6948,
      "Ġsailing": 6949,
      "ĠSw": 6950,
      "ĠPro": 6951,
      "Ġflute": 6952,
      "Ġwaterway": 6953,
      "ceuse": 6954,
      "Ġconfet": 6955,
      "Ġcome": 6956,
      "Ġscience": 6957,
      "ĠMex": 6958,
      "ĠMultiple": 6959,
      "Ġpropos": 6960,
      "Ġsniff": 6961,
      "ĠdÃ©amb": 6962,
      "ĠdÃ©part": 6963,
      "oodle": 6964,
      "Ġbiz": 6965,
      "Ġcoaster": 6966,
      "Ġappart": 6967,
      "issement": 6968,
      "Ġoverhead": 6969,
      "Ġhandle": 6970,
      "Ġbaril": 6971,
      "Ġbarrier": 6972,
      "Ġperron": 6973,
      "Ġperru": 6974,
      "Ġperceuse": 6975,
      "automne": 6976,
      "Ġteaching": 6977,
      "Ġspi": 6978,
      "Ġmusc": 6979,
      "ĠÃ¢ne": 6980,
      "ĠÃ©cr": 6981,
      "Ġpolit": 6982,
      "Ġtalent": 6983,
      "Ġobsc": 6984,
      "Ġpartir": 6985,
      "ĠOrient": 6986,
      "Ġagite": 6987,
      "Ġagents": 6988,
      "Ġpretty": 6989,
      "Ġusine": 6990,
      "Ġpleurs": 6991,
      "Ġswimmers": 6992,
      "Ġmettent": 6993,
      "Ġartistes": 6994,
      "ĠbÃ©bÃ©s": 6995,
      "Ġtower": 6996,
      "Ġremo": 6997,
      "Ġmoutons": 6998,
      "Ã©cl": 6999,
      "Ġmagasins": 7000,
      "Ġdessine": 7001,
      "Ġloom": 7002,
      "Ġramasse": 7003,
      "Ġdescent": 7004,
      "time": 7005,
      "ĠElder": 7006,
      "ĠdÃ©bris": 7007,
      "Ġessent": 7008,
      "Ġtires": 7009,
      "ĠtirÃ©e": 7010,
      "Ġbains": 7011,
      "ĠRe": 7012,
      "Ġtouches": 7013,
      "corn": 7014,
      "Ġcigarettes": 7015,
      "Ġcraft": 7016,
      "ĠÃ©pÃ©e": 7017,
      "ĠpÃªcher": 7018,
      "Ġsoud": 7019,
      "Ġnageurs": 7020,
      "Ġofficial": 7021,
      "Ġstudying": 7022,
      "Ġwheelie": 7023,
      "Ġobserves": 7024,
      "Ġexamines": 7025,
      "Ġbutter": 7026,
      "Ġpoterie": 7027,
      "Ġbundle": 7028,
      "Ġcups": 7029,
      "Ġpeints": 7030,
      "Ġjetant": 7031,
      "Ġjustaucorps": 7032,
      "Ġflips": 7033,
      "Ġhauteur": 7034,
      "Ġespagn": 7035,
      "Ġengin": 7036,
      "ĠBlue": 7037,
      "Ġmorceaux": 7038,
      "ĠrÃ©union": 7039,
      "ĠtatouÃ©": 7040,
      "Ġinclin": 7041,
      "Ġlanding": 7042,
      "Ġgaze": 7043,
      "Ġcherchant": 7044,
      "ĠpremiÃ¨re": 7045,
      "Ġrappel": 7046,
      "Ġtutu": 7047,
      "Ġbaiss": 7048,
      "Ġcaddie": 7049,
      "Ġsauvage": 7050,
      "Ġparasols": 7051,
      "Ġlaptops": 7052,
      "Ġkickbox": 7053,
      "Ġmouvements": 7054,
      "Ġtricot": 7055,
      "Ġgestures": 7056,
      "Ġentering": 7057,
      "partment": 7058,
      "Ġcroix": 7059,
      "Ġenthusi": 7060,
      "Ġmanifestants": 7061,
      "Ġmessy": 7062,
      "Ġimpress": 7063,
      "Ġjockeys": 7064,
      "Ġwaterfront": 7065,
      "Ġcustomer": 7066,
      "Ġconsisting": 7067,
      "ĠapprÃ©cient": 7068,
      "Ġgroceries": 7069,
      "Ġaqua": 7070,
      "Ġacrobatie": 7071,
      "Ġblouses": 7072,
      "Ġcommencer": 7073,
      "Ġbasketteurs": 7074,
      "Ġatteindre": 7075,
      "ĠpÃ¢le": 7076,
      "Ġmagnif": 7077,
      "Ġdirigeant": 7078,
      "Ġspotted": 7079,
      "Ġchiots": 7080,
      "Ġshadow": 7081,
      "ĠÃ©cossais": 7082,
      "ĠLondres": 7083,
      "Ġpercuss": 7084,
      "ĠrÃ©flÃ©chissant": 7085,
      "Ġgratte": 7086,
      "weight": 7087,
      "Ġfirefighters": 7088,
      "Ġkeep": 7089,
      "ĠpÃ©dal": 7090,
      "Ġmitt": 7091,
      "Ġeggs": 7092,
      "Ġdisputent": 7093,
      "Ġceremony": 7094,
      "Ġbrowsing": 7095,
      "Ġchainsaw": 7096,
      "Ġmunicip": 7097,
      "ĠreÃ§oit": 7098,
      "ĠtronÃ§": 7099,
      "Ġpatauge": 7100,
      "Ġburgundy": 7101,
      "Ġcornemuse": 7102,
      "American": 7103,
      "Ġdusk": 7104,
      "Ġsneakers": 7105,
      "ĠfraÃ®che": 7106,
      "ĠcuillÃ¨re": 7107,
      "ĠdiplÃ´": 7108,
      "ĠCaucasian": 7109,
      "Ġbretelles": 7110,
      "Ġabrup": 7111,
      "Ġtondeuse": 7112,
      "Ġdebris": 7113,
      "Ġgrosses": 7114,
      "beux": 7115,
      "book": 7116,
      "cip": 7117,
      "copes": 7118,
      "drop": 7119,
      "fire": 7120,
      "hand": 7121,
      "ionne": 7122,
      "kl": 7123,
      "lÃ©t": 7124,
      "mint": 7125,
      "nu": 7126,
      "ness": 7127,
      "pique": 7128,
      "pousse": 7129,
      "tien": 7130,
      "vil": 7131,
      "vas": 7132,
      "ville": 7133,
      "vÃ©r": 7134,
      "wor": 7135,
      "wheel": 7136,
      "Ġ&": 7137,
      "Ġ-": 7138,
      "Ġ:": 7139,
      "Ġif": 7140,
      "Ġdisant": 7141,
      "Ġsides": 7142,
      "Ġsized": 7143,
      "Ġpon": 7144,
      "Ġtest": 7145,
      "Ġbite": 7146,
      "Ġbombe": 7147,
      "Ġcible": 7148,
      "Ġunes": 7149,
      "Ġwires": 7150,
      "ĠmÃ¢": 7151,
      "Ġmule": 7152,
      "ities": 7153,
      "itiÃ©": 7154,
      "Ġhotel": 7155,
      "Ġhyd": 7156,
      "Ġlat": 7157,
      "Ġlate": 7158,
      "Ġlignes": 7159,
      "oming": 7160,
      "ombres": 7161,
      "Ġdem": 7162,
      "Ġgive": 7163,
      "Ġgames": 7164,
      "Ġinj": 7165,
      "orge": 7166,
      "Ġrent": 7167,
      "Ġronde": 7168,
      "Ġenle": 7169,
      "Ġenfl": 7170,
      "atif": 7171,
      "ilts": 7172,
      "roite": 7173,
      "Ġsurpo": 7174,
      "ĠTV": 7175,
      "Ġblur": 7176,
      "Ġblood": 7177,
      "Ġblind": 7178,
      "Ġstare": 7179,
      "Ġstoop": 7180,
      "Ġstores": 7181,
      "Ġchess": 7182,
      "Ġchips": 7183,
      "Ġlaine": 7184,
      "Ġnive": 7185,
      "Ġnager": 7186,
      "iches": 7187,
      "ott": 7188,
      "Ġremet": 7189,
      "Ġrecl": 7190,
      "chandise": 7191,
      "ayent": 7192,
      "rad": 7193,
      "riÃ¨res": 7194,
      "ably": 7195,
      "igan": 7196,
      "Ġassiettes": 7197,
      "ĠfrÃ¨re": 7198,
      "ĠgarÃ©es": 7199,
      "very": 7200,
      "Ġchewing": 7201,
      "ague": 7202,
      "ĠÃ©tre": 7203,
      "Ġbeen": 7204,
      "Ġeur": 7205,
      "Ġarcade": 7206,
      "aph": 7207,
      "Ġclad": 7208,
      "chef": 7209,
      "Ġcoups": 7210,
      "Ġskaters": 7211,
      "bed": 7212,
      "Ġcarts": 7213,
      "Ġbricks": 7214,
      "Ġforces": 7215,
      "ĠpoÃª": 7216,
      "Ġherbe": 7217,
      "Ġherbeux": 7218,
      "Ġsmash": 7219,
      "Ġbureaux": 7220,
      "Ġflou": 7221,
      "Ġsombres": 7222,
      "Ġwatermel": 7223,
      "cep": 7224,
      "Ġswe": 7225,
      "Ġcomes": 7226,
      "ĠMiam": 7227,
      "ĠCo": 7228,
      "ĠCanad": 7229,
      "Ġbackdrop": 7230,
      "Ġworld": 7231,
      "ĠAnge": 7232,
      "Ġbalayant": 7233,
      "Ġsnowsuit": 7234,
      "avion": 7235,
      "renant": 7236,
      "Ġattending": 7237,
      "Ġglisser": 7238,
      "Ġjavel": 7239,
      "Ġheading": 7240,
      "Ġoverweight": 7241,
      "Ġhanding": 7242,
      "Ġtrolle": 7243,
      "Ġteal": 7244,
      "eattle": 7245,
      "Ġcanot": 7246,
      "ĠLegos": 7247,
      "Ġperformers": 7248,
      "Ġaller": 7249,
      "Ġboules": 7250,
      "Ġboulder": 7251,
      "ĠsociÃ©": 7252,
      "Ġcontest": 7253,
      "ĠgoÃ»": 7254,
      "ĠOr": 7255,
      "akis": 7256,
      "Ġbordure": 7257,
      "affaires": 7258,
      "Ġsuitcase": 7259,
      "Ġvisiting": 7260,
      "Ġslip": 7261,
      "Ġpapiers": 7262,
      "Ġmovie": 7263,
      "ĠmoitiÃ©": 7264,
      "Ġentass": 7265,
      "Ġpurch": 7266,
      "Ġutiliser": 7267,
      "Ġdraw": 7268,
      "ĠrayÃ©s": 7269,
      "Ġmouton": 7270,
      "ĠÃ©troite": 7271,
      "ĠChina": 7272,
      "ĠNY": 7273,
      "oncelle": 7274,
      "Ġstrange": 7275,
      "Ġshel": 7276,
      "Ġhockeyeurs": 7277,
      "Ġnuages": 7278,
      "ize": 7279,
      "Ġfiremen": 7280,
      "Ġvendors": 7281,
      "Ġjuice": 7282,
      "Ġzomb": 7283,
      "Ġpomme": 7284,
      "Ġpommes": 7285,
      "Ġtouch": 7286,
      "entretien": 7287,
      "Ġtrim": 7288,
      "ĠpiÃ¨ces": 7289,
      "Ġpaperwork": 7290,
      "Ġentrep": 7291,
      "Ġhiver": 7292,
      "Ġnageur": 7293,
      "Ġretourne": 7294,
      "ĠdÃ©fense": 7295,
      "ĠpulvÃ©r": 7296,
      "Ġferme": 7297,
      "Ġknees": 7298,
      "Ġdirect": 7299,
      "Ġsuppl": 7300,
      "Ġgrimaces": 7301,
      "brush": 7302,
      "Ġcharg": 7303,
      "Ġlocation": 7304,
      "Ġforehead": 7305,
      "Ġlisten": 7306,
      "Ġstops": 7307,
      "Ġpresque": 7308,
      "ĠtombÃ©e": 7309,
      "Ġmerchandise": 7310,
      "accroup": 7311,
      "Ġtourner": 7312,
      "ĠBoys": 7313,
      "Ġnewspapers": 7314,
      "ĠState": 7315,
      "Ġwrestler": 7316,
      "Ġplongeoir": 7317,
      "Ġblankets": 7318,
      "ĠattachÃ©e": 7319,
      "Ġbrot": 7320,
      "Ġapplying": 7321,
      "Ġcountryside": 7322,
      "Ġgravit": 7323,
      "Ġalleyway": 7324,
      "Ġcouvertures": 7325,
      "ĠprotÃ¨ge": 7326,
      "Ġgymnastics": 7327,
      "Ġdorment": 7328,
      "Ġorientale": 7329,
      "Ġknife": 7330,
      "entraÃ®nent": 7331,
      "Ġstylo": 7332,
      "Ġnouvellement": 7333,
      "Ġtubes": 7334,
      "Ġsweeps": 7335,
      "Ġbadmint": 7336,
      "ĠexposÃ©": 7337,
      "Ġenvir": 7338,
      "Ġadmire": 7339,
      "Ġencomb": 7340,
      "ĠdorÃ©e": 7341,
      "Ġporche": 7342,
      "tenance": 7343,
      "Ġpaddles": 7344,
      "Ġwares": 7345,
      "Ġrebond": 7346,
      "ĠÅĵuvre": 7347,
      "Ġtackle": 7348,
      "ĠglacÃ©e": 7349,
      "Ġinspects": 7350,
      "Ġpillows": 7351,
      "ĠcroisÃ©s": 7352,
      "Ġpatineurs": 7353,
      "Ġbamboo": 7354,
      "Ġsurveille": 7355,
      "ĠÃ©lÃ©phant": 7356,
      "Ġbeverages": 7357,
      "maid": 7358,
      "Ġborne": 7359,
      "Ġshadows": 7360,
      "Ġexercise": 7361,
      "Ġtelephone": 7362,
      "Ġpigtails": 7363,
      "Ġfilling": 7364,
      "Ġcorpulent": 7365,
      "Ġdragon": 7366,
      "Ġolympiques": 7367,
      "ĠpoignÃ©e": 7368,
      "Ġgalerie": 7369,
      "Ġemergency": 7370,
      "Ġexpression": 7371,
      "Ġexhibit": 7372,
      "ĠprÃ©sente": 7373,
      "Ġretriever": 7374,
      "Ã©treignent": 7375,
      "Ġtossing": 7376,
      "Ġcarrelage": 7377,
      "ĠengagÃ©s": 7378,
      "Ġbeanie": 7379,
      "Ġclapping": 7380,
      "ĠbouclÃ©s": 7381,
      "Ġlettres": 7382,
      "Ġbagpipes": 7383,
      "Ġcontrebas": 7384,
      "Ġchicken": 7385,
      "Ġbaguettes": 7386,
      "Ġjumelles": 7387,
      "Ġmatelas": 7388,
      "Ã©tudiants": 7389,
      "ĠSooners": 7390,
      "Ġbystanders": 7391,
      "Ġtranquille": 7392,
      "Ġbulldozer": 7393,
      "Ġumpire": 7394,
      "Ġfourrure": 7395,
      "ĠtronÃ§onneuse": 7396,
      "Ġabrupte": 7397,
      "Ġponch": 7398,
      "Ġenflam": 7399,
      "Ġsurpoids": 7400,
      "ĠMiami": 7401,
      "ĠsociÃ©tÃ©": 7402,
      "Ġbadminton": 7403,
      "Orient": 7404,
      "ailing": 7405,
      "aÃ©roport": 7406,
      "cil": 7407,
      "cupe": 7408,
      "ders": 7409,
      "ez": 7410,
      "ford": 7411,
      "hoop": 7412,
      "mat": 7413,
      "of": 7414,
      "romat": 7415,
      "tÃ¨re": 7416,
      "uk": 7417,
      "uer": 7418,
      "vice": 7419,
      "where": 7420,
      "Ġaider": 7421,
      "Ġdad": 7422,
      "Ġdiver": 7423,
      "Ġdives": 7424,
      "Ġsat": 7425,
      "ened": 7426,
      "Ġpoc": 7427,
      "ĠpÃ¢t": 7428,
      "Ġpiles": 7429,
      "Ġti": 7430,
      "Ġtux": 7431,
      "Ġtort": 7432,
      "Ġtress": 7433,
      "Ġtemp": 7434,
      "Ġtights": 7435,
      "Ġtiny": 7436,
      "Ġtachet": 7437,
      "Ġbols": 7438,
      "Ġbiting": 7439,
      "Ġcans": 7440,
      "Ġcros": 7441,
      "Ġcrown": 7442,
      "inger": 7443,
      "Ġunus": 7444,
      "ison": 7445,
      "Ġmy": 7446,
      "ĠmÃ¨": 7447,
      "Ġmex": 7448,
      "Ġmower": 7449,
      "Ġmultiple": 7450,
      "Ġfant": 7451,
      "Ġfourn": 7452,
      "itan": 7453,
      "Ġhind": 7454,
      "Ġhache": 7455,
      "Ġhaie": 7456,
      "Ġhamb": 7457,
      "Ġlux": 7458,
      "Ġlens": 7459,
      "Ġligh": 7460,
      "Ġlink": 7461,
      "omm": 7462,
      "ĠApple": 7463,
      "Ġgathers": 7464,
      "hel": 7465,
      "Ġinv": 7466,
      "urer": 7467,
      "orning": 7468,
      "orange": 7469,
      "Ġreste": 7470,
      "Ġrice": 7471,
      "atman": 7472,
      "Ġol": 7473,
      "Ġown": 7474,
      "Ġjud": 7475,
      "uelle": 7476,
      "Ġhomeless": 7477,
      "Ġsurger": 7478,
      "asant": 7479,
      "ĠTeen": 7480,
      "ause": 7481,
      "ersby": 7482,
      "Ġstill": 7483,
      "Ġstaff": 7484,
      "Ġchap": 7485,
      "ĠchÃ¢": 7486,
      "Ġchristmas": 7487,
      "Ġnou": 7488,
      "icerie": 7489,
      "oller": 7490,
      "Ġplup": 7491,
      "Ġplacing": 7492,
      "Ġplats": 7493,
      "Ġwhis": 7494,
      "iellement": 7495,
      "Ġboards": 7496,
      "onnement": 7497,
      "riot": 7498,
      "Ġyarn": 7499,
      "Ġpeignent": 7500,
      "ĠjouÃ©": 7501,
      "Ġplayfully": 7502,
      "illed": 7503,
      "illeux": 7504,
      "Ġtraveling": 7505,
      "Ġsepar": 7506,
      "Ġsecou": 7507,
      "illard": 7508,
      "Ġpersonnel": 7509,
      "umped": 7510,
      "verts": 7511,
      "Ġcheese": 7512,
      "ults": 7513,
      "agenou": 7514,
      "Ġhispan": 7515,
      "Ġeight": 7516,
      "Ġwatched": 7517,
      "Ġarros": 7518,
      "appe": 7519,
      "Ġporter": 7520,
      "Ġtray": 7521,
      "Ġtrucks": 7522,
      "Ġcourb": 7523,
      "Ġcouss": 7524,
      "tÃ©es": 7525,
      "occupe": 7526,
      "achu": 7527,
      "Ġskiers": 7528,
      "Ġbring": 7529,
      "ĠbrÃ»": 7530,
      "Ġpoursuit": 7531,
      "stro": 7532,
      "Ġkit": 7533,
      "Ġjoueuses": 7534,
      "ensive": 7535,
      "Ġphase": 7536,
      "ĠSpe": 7537,
      "ĠPet": 7538,
      "ĠsautÃ©": 7539,
      "ĠMoh": 7540,
      "ĠCou": 7541,
      "Ġcolonnes": 7542,
      "Ġcollants": 7543,
      "phants": 7544,
      "ĠdÃ©ploy": 7545,
      "Ġcovers": 7546,
      "Ġcase": 7547,
      "Ġrive": 7548,
      "Ġheaded": 7549,
      "oreille": 7550,
      "ubs": 7551,
      "Ġhandra": 7552,
      "Ġposte": 7553,
      "ĠbarriÃ¨res": 7554,
      "ignon": 7555,
      "Ġtea": 7556,
      "Ġspons": 7557,
      "ĠBatman": 7558,
      "Ġpicks": 7559,
      "Ġbush": 7560,
      "ĠÃ©cole": 7561,
      "Ġcann": 7562,
      "Ġsunlight": 7563,
      "Ġspeak": 7564,
      "Ġallant": 7565,
      "Ġpartition": 7566,
      "Ġbouc": 7567,
      "angle": 7568,
      "ĠrÃ©ce": 7569,
      "ĠGym": 7570,
      "Ġopens": 7571,
      "Ã©brou": 7572,
      "ĠentrÃ©e": 7573,
      "Ġartisan": 7574,
      "Ġdoss": 7575,
      "Ġserves": 7576,
      "Ġimm": 7577,
      "Ġrayon": 7578,
      "Ã©cume": 7579,
      "Ġnombreuse": 7580,
      "Ġlob": 7581,
      "Ġlove": 7582,
      "Ġramant": 7583,
      "Ġrament": 7584,
      "ĠHaw": 7585,
      "Ġfloats": 7586,
      "obst": 7587,
      "Ġtreat": 7588,
      "Ġsoap": 7589,
      "ĠJeux": 7590,
      "Ġcello": 7591,
      "Ġhighway": 7592,
      "Ġsortir": 7593,
      "Ġremplis": 7594,
      "ĠRoller": 7595,
      "ĠVe": 7596,
      "ĠVol": 7597,
      "ĠamÃ©ricaine": 7598,
      "Ġtrib": 7599,
      "Ã©graph": 7600,
      "Ġboxer": 7601,
      "Ġviolettes": 7602,
      "ĠÃ©paisse": 7603,
      "Ġcircule": 7604,
      "ĠpÃªchant": 7605,
      "Ġcondition": 7606,
      "Ġplaced": 7607,
      "Ġvioloncelle": 7608,
      "Ġfourg": 7609,
      "Ġobservant": 7610,
      "Ġbank": 7611,
      "Ġlifts": 7612,
      "Ġlifted": 7613,
      "Ġplanting": 7614,
      "ĠlancÃ©": 7615,
      "Ġmicroscopes": 7616,
      "Ġpaquet": 7617,
      "Ġfalls": 7618,
      "Ġsuspendue": 7619,
      "ĠAmerica": 7620,
      "Ġfolded": 7621,
      "rÃ©m": 7622,
      "Ġharmonica": 7623,
      "Ġreflection": 7624,
      "Ġbelong": 7625,
      "Ġshoreline": 7626,
      "armÃ©e": 7627,
      "Ġfilme": 7628,
      "Ġarrange": 7629,
      "ĠtournÃ©": 7630,
      "Ġtournoi": 7631,
      "ĠÃ©tudie": 7632,
      "Ġincline": 7633,
      "Ġclosely": 7634,
      "Ġpractices": 7635,
      "Ġcalme": 7636,
      "Ġsaxoph": 7637,
      "Ġrapids": 7638,
      "Ġsuspenders": 7639,
      "Ġchatting": 7640,
      "Ġ10": 7641,
      "Ġtraditionnelle": 7642,
      "Ã©chau": 7643,
      "Ġlogs": 7644,
      "Ġapprend": 7645,
      "Ġtisser": 7646,
      "Ġmedium": 7647,
      "Ġmotorized": 7648,
      "Ġtuba": 7649,
      "ĠdÃ©plaÃ§ant": 7650,
      "Ġreposer": 7651,
      "Ġpuppies": 7652,
      "Ġdiverses": 7653,
      "Ġcombattant": 7654,
      "Ġfleurie": 7655,
      "Ġautomobile": 7656,
      "Ġcelebration": 7657,
      "Ġfabri": 7658,
      "Ġnavigue": 7659,
      "ĠgÃ©ante": 7660,
      "ĠmÃ©diÃ©": 7661,
      "Ġcavaliers": 7662,
      "Ġconstruire": 7663,
      "Ġrepairing": 7664,
      "Ġinstallant": 7665,
      "Ġjonglant": 7666,
      "Ġathletes": 7667,
      "Ġswimsuits": 7668,
      "ĠlÃ©vriers": 7669,
      "Ġlaundromat": 7670,
      "Ġtackling": 7671,
      "Ġkhakis": 7672,
      "Ġelev": 7673,
      "Ġsprinklers": 7674,
      "Ġballerine": 7675,
      "ĠalignÃ©es": 7676,
      "ĠdÃ©chets": 7677,
      "Ġunderwear": 7678,
      "Ġfarmer": 7679,
      "Ġgobelets": 7680,
      "Ġmascul": 7681,
      "Ġenthousiaste": 7682,
      "ĠÃ©toile": 7683,
      "ĠÃ©lÃ©v": 7684,
      "Ġpratiquant": 7685,
      "ĠdÃ©couper": 7686,
      "Ġmotorcyclists": 7687,
      "ĠchorÃ©graph": 7688,
      "Ġtechn": 7689,
      "Ġchalkboard": 7690,
      "Ġdusty": 7691,
      "Ġsaris": 7692,
      "Ġaccompan": 7693,
      "Ġcorpul": 7694,
      "Ġfirefighter": 7695,
      "Ġrollerskating": 7696,
      "Ġfocused": 7697,
      "Ġinvolved": 7698,
      "Ġponytail": 7699,
      "ĠcÃ©lÃ©b": 7700,
      "Ġsaisit": 7701,
      "Ġrollerblading": 7702,
      "Ġenthousiasme": 7703,
      "Ġenthousiastes": 7704,
      "Ġcarefully": 7705,
      "Ġthumbs": 7706,
      "Ġchameaux": 7707,
      "Ġhotdogs": 7708,
      "ĠdÃ©colle": 7709,
      "Ġpliante": 7710,
      "Ġscreaming": 7711,
      "Ġadjusting": 7712,
      "Ġvoilier": 7713,
      "Ġpatterned": 7714,
      "ĠdÃ©placent": 7715,
      "ĠpoussiÃ©reux": 7716,
      "Ġlarger": 7717,
      "ĠenveloppÃ©": 7718,
      "Ġradio": 7719,
      "ĠFemale": 7720,
      "ĠmontgolfiÃ¨re": 7721,
      "ĠRunners": 7722,
      "Ġmeubles": 7723,
      "Ġcheek": 7724,
      "Ġbracelet": 7725,
      "Ġcreek": 7726,
      "ĠSubway": 7727,
      "ĠPolice": 7728,
      "Ġsnowshoes": 7729,
      "ĠintÃ©grale": 7730,
      "Ġlearning": 7731,
      "Ġbizarre": 7732,
      "Ġessentiellement": 7733,
      "ĠbaissÃ©e": 7734,
      "Ġmunicipal": 7735,
      "Ġtrolley": 7736,
      "Ġsupplies": 7737,
      "Ġchargement": 7738,
      "accroupit": 7739,
      "Ġpocket": 7740,
      "Ġcrossed": 7741,
      "Ġlighted": 7742,
      "Ġsurgery": 7743,
      "Ġplupart": 7744,
      "ĠMohawk": 7745,
      "CE": 7746,
      "Cola": 7747,
      "bers": 7748,
      "bama": 7749,
      "cont": 7750,
      "cra": 7751,
      "celle": 7752,
      "cked": 7753,
      "ees": 7754,
      "gers": 7755,
      "ha": 7756,
      "iÃ©e": 7757,
      "ivant": 7758,
      "lac": 7759,
      "lie": 7760,
      "mÃªme": 7761,
      "net": 7762,
      "nÃ©e": 7763,
      "oises": 7764,
      "press": 7765,
      "uts": 7766,
      "voir": 7767,
      "wag": 7768,
      "ye": 7769,
      "yon": 7770,
      "Ġ#": 7771,
      "Ġ8": 7772,
      "Ġailes": 7773,
      "inet": 7774,
      "inform": 7775,
      "Ġdun": 7776,
      "Ġdone": 7777,
      "Ġdiv": 7778,
      "Ġdrain": 7779,
      "Ġsens": 7780,
      "enu": 7781,
      "ĠpÃ©r": 7782,
      "Ġtant": 7783,
      "ĠbÃ©t": 7784,
      "Ġbonne": 7785,
      "era": 7786,
      "Ġcy": 7787,
      "Ġcue": 7788,
      "Ġcach": 7789,
      "Ġcelle": 7790,
      "Ġcards": 7791,
      "Ġcooks": 7792,
      "ouvriers": 7793,
      "ouliÃ¨re": 7794,
      "Ġwhe": 7795,
      "Ġwill": 7796,
      "Ġwashes": 7797,
      "Ġmel": 7798,
      "ĠmÃ©c": 7799,
      "Ġfell": 7800,
      "Ġfed": 7801,
      "itary": 7802,
      "ĠhÃ©l": 7803,
      "Ġhike": 7804,
      "Ġhaw": 7805,
      "Ġhuddle": 7806,
      "Ġlip": 7807,
      "Ġlighting": 7808,
      "Ġdepartment": 7809,
      "Ã©rique": 7810,
      "aling": 7811,
      "Ġrat": 7812,
      "Ġrab": 7813,
      "Ġrows": 7814,
      "Ġenrou": 7815,
      "Ġvu": 7816,
      "Ġvont": 7817,
      "Ġvra": 7818,
      "Ġsurg": 7819,
      "emen": 7820,
      "aspirateur": 7821,
      "ĠmanÅĵu": 7822,
      "Ġmaneu": 7823,
      "ands": 7824,
      "Ġstall": 7825,
      "Ġstory": 7826,
      "Ġstilts": 7827,
      "Ġchasse": 7828,
      "Ġchiff": 7829,
      "Ġchute": 7830,
      "ĠnÅĵ": 7831,
      "icle": 7832,
      "icked": 7833,
      "ourd": 7834,
      "ota": 7835,
      "Ġrecor": 7836,
      "quÃ©e": 7837,
      "allen": 7838,
      "aller": 7839,
      "Ġlean": 7840,
      "Ġwhom": 7841,
      "Ġshape": 7842,
      "Ġasper": 7843,
      "Ġasphal": 7844,
      "onnette": 7845,
      "Ġparent": 7846,
      "Ġparall": 7847,
      "Ġpeup": 7848,
      "Ġpeign": 7849,
      "ams": 7850,
      "Ġmarque": 7851,
      "Ġplayed": 7852,
      "iges": 7853,
      "igning": 7854,
      "Ġquest": 7855,
      "ressed": 7856,
      "ĠprÃ©l": 7857,
      "Ġregroup": 7858,
      "osp": 7859,
      "uler": 7860,
      "Ġwalked": 7861,
      "agull": 7862,
      "adm": 7863,
      "Ġeastern": 7864,
      "Ġthan": 7865,
      "Ġarche": 7866,
      "shop": 7867,
      "Ġclos": 7868,
      "Ġtriste": 7869,
      "Ġtromb": 7870,
      "ctors": 7871,
      "ctures": 7872,
      "ifice": 7873,
      "kswag": 7874,
      "body": 7875,
      "Ġskim": 7876,
      "Ġcaric": 7877,
      "Ġbrou": 7878,
      "sters": 7879,
      "stri": 7880,
      "sticks": 7881,
      "Ġsaw": 7882,
      "Ġpoche": 7883,
      "Ġsmoot": 7884,
      "ĠSchool": 7885,
      "ĠSpect": 7886,
      "ĠSeattle": 7887,
      "ĠPed": 7888,
      "Ġflat": 7889,
      "Ã¢ches": 7890,
      "Ã¢teaux": 7891,
      "ously": 7892,
      "Ġdresse": 7893,
      "Ġscore": 7894,
      "Ġscarves": 7895,
      "ĠCar": 7896,
      "ĠCal": 7897,
      "ĠCycl": 7898,
      "ĠCafe": 7899,
      "Ġupward": 7900,
      "phin": 7901,
      "Ġcoast": 7902,
      "Ġsideways": 7903,
      "Ġcasually": 7904,
      "issance": 7905,
      "ational": 7906,
      "Ġmaintenance": 7907,
      "oseup": 7908,
      "Ġautumn": 7909,
      "raption": 7910,
      "ĠspÃ©c": 7911,
      "ĠBand": 7912,
      "ĠBic": 7913,
      "ĠBrit": 7914,
      "Ġmuscl": 7915,
      "Ġcanette": 7916,
      "Ġcanvas": 7917,
      "Ġcanyon": 7918,
      "Ġpassersby": 7919,
      "Ġmotion": 7920,
      "Ġworkout": 7921,
      "Ġworkshop": 7922,
      "Ġspecial": 7923,
      "Ġcompagn": 7924,
      "oyeux": 7925,
      "Ġheaddress": 7926,
      "Ġcontempl": 7927,
      "Ġcontraption": 7928,
      "Ġgoat": 7929,
      "Ġrestauration": 7930,
      "ĠAsie": 7931,
      "ĠAsia": 7932,
      "iÃ¨rement": 7933,
      "ĠbandouliÃ¨re": 7934,
      "ĠopÃ©ration": 7935,
      "aiser": 7936,
      "Ġroadside": 7937,
      "Ġmoins": 7938,
      "Ġsingle": 7939,
      "Ġartwork": 7940,
      "Ġcollie": 7941,
      "Ġcollines": 7942,
      "Ġcollared": 7943,
      "Ġreport": 7944,
      "ĠcrÃ©e": 7945,
      "Ġcapot": 7946,
      "Ġouvrant": 7947,
      "Ġchampagne": 7948,
      "ĠÃ©tag": 7949,
      "ĠÃ©tabl": 7950,
      "expos": 7951,
      "Ġtremp": 7952,
      "Ġshepherd": 7953,
      "boyant": 7954,
      "Ġsportive": 7955,
      "ftop": 7956,
      "Ġnumbers": 7957,
      "Ġtravailleur": 7958,
      "attente": 7959,
      "Ġessaient": 7960,
      "Ġmonkey": 7961,
      "Ġmonitor": 7962,
      "ĠJack": 7963,
      "Ġvendent": 7964,
      "Ġcreating": 7965,
      "Ġdisque": 7966,
      "Ġhighchair": 7967,
      "Ġjuggles": 7968,
      "Ġremplit": 7969,
      "Ġtouchant": 7970,
      "ultimate": 7971,
      "Ġconcentre": 7972,
      "Ġconcours": 7973,
      "ĠÃ©picerie": 7974,
      "Ġpointant": 7975,
      "Ġponton": 7976,
      "ĠcouchÃ©e": 7977,
      "Ġhiding": 7978,
      "Ġcute": 7979,
      "embrasse": 7980,
      "Ġchariots": 7981,
      "Ġturned": 7982,
      "Ġnettoy": 7983,
      "Ġtoddlers": 7984,
      "ĠÃ©chasses": 7985,
      "Ġinteresting": 7986,
      "Ġkayaking": 7987,
      "Ġtapant": 7988,
      "Ġtrouver": 7989,
      "Ġadolescente": 7990,
      "Ġvenue": 7991,
      "Ġbutcher": 7992,
      "Ġpeinte": 7993,
      "Ġjoie": 7994,
      "Ġharv": 7995,
      "Ġguer": 7996,
      "Ġreflet": 7997,
      "Ġfixes": 7998,
      "ĠlÃ¨che": 7999,
      "Ġdisplays": 8000,
      "Ġbelts": 8001,
      "Ġcuisiner": 8002,
      "Ġearphones": 8003,
      "ĠrÃ©unies": 8004,
      "Ġpellette": 8005,
      "Ġnavire": 8006,
      "Ġarrang": 8007,
      "Ġrooftop": 8008,
      "Ġdisplaying": 8009,
      "atory": 8010,
      "Ġproducts": 8011,
      "Ġfinir": 8012,
      "Ġintense": 8013,
      "Ġplongeur": 8014,
      "Ġpauvre": 8015,
      "Ġgazes": 8016,
      "ĠÃ©clairage": 8017,
      "Ġbalancent": 8018,
      "Ġadverses": 8019,
      "Ġaccroupis": 8020,
      "Ġtransportation": 8021,
      "Ġracers": 8022,
      "Ġmixer": 8023,
      "Ġfrozen": 8024,
      "Ġstyl": 8025,
      "Ġnouvelle": 8026,
      "Ġburning": 8027,
      "Ġcomplex": 8028,
      "ĠargentÃ©e": 8029,
      "Ġexaminent": 8030,
      "Ġmince": 8031,
      "Ġapproaches": 8032,
      "Ġcrouched": 8033,
      "Ġcloud": 8034,
      "Ġsprayed": 8035,
      "Ġpupitre": 8036,
      "Ġcandle": 8037,
      "Ġdecorative": 8038,
      "lined": 8039,
      "ĠboÃ®tes": 8040,
      "Ġfurry": 8041,
      "Ġfleuri": 8042,
      "Ġoreille": 8043,
      "Ġcelebrate": 8044,
      "Ġpuzz": 8045,
      "ĠdÃ©guisÃ©": 8046,
      "Ġtrashcan": 8047,
      "estrian": 8048,
      "umbling": 8049,
      "Ġcitron": 8050,
      "affrontant": 8051,
      "ĠÅĵufs": 8052,
      "Ġseulement": 8053,
      "Ġinspectent": 8054,
      "Ġvacances": 8055,
      "ĠextrÃ©m": 8056,
      "Ġscaffold": 8057,
      "Ġembracing": 8058,
      "Ġlingerie": 8059,
      "Ġvalley": 8060,
      "Ġstepping": 8061,
      "ĠÃ©chafaudages": 8062,
      "Ġtorch": 8063,
      "Ġtorches": 8064,
      "Ġpatineur": 8065,
      "Ġnuageuse": 8066,
      "Ġpunch": 8067,
      "ĠÃ©toffe": 8068,
      "Ġcommunic": 8069,
      "prise": 8070,
      "Ġvict": 8071,
      "Ġprinted": 8072,
      "Ġtwirl": 8073,
      "Ġtechnique": 8074,
      "Ġpilotes": 8075,
      "Ġactivity": 8076,
      "Ġfacility": 8077,
      "Ġindiennes": 8078,
      "Ġreligieuse": 8079,
      "Ġsarcelle": 8080,
      "ĠArmy": 8081,
      "Ġbreakdance": 8082,
      "ĠCloseup": 8083,
      "Ġinvolving": 8084,
      "Ġchopping": 8085,
      "ĠcÃ©lÃ¨": 8086,
      "ĠFiref": 8087,
      "Ġexperiment": 8088,
      "Ġdriveway": 8089,
      "Ġmanipule": 8090,
      "Ġchameau": 8091,
      "ĠOlympics": 8092,
      "Ġfatigu": 8093,
      "icopter": 8094,
      "icoptÃ¨re": 8095,
      "Ġlibre": 8096,
      "Ġgallery": 8097,
      "ĠÃ©vier": 8098,
      "Ġbronze": 8099,
      "Ġkitesurf": 8100,
      "Ġembar": 8101,
      "animaux": 8102,
      "ĠMusic": 8103,
      "Ġempil": 8104,
      "Ġfinishing": 8105,
      "ĠiPod": 8106,
      "hÃ´pital": 8107,
      "ĠblessÃ©": 8108,
      "Ġamidst": 8109,
      "Ġpoulet": 8110,
      "Ġperdu": 8111,
      "ĠÃ©coliers": 8112,
      "Ġsignalisation": 8113,
      "ĠdÃ©labrÃ©": 8114,
      "Ġfonctionn": 8115,
      "Ġrobot": 8116,
      "adolescents": 8117,
      "Ġkimonos": 8118,
      "Ġpistolet": 8119,
      "Ġbongo": 8120,
      "Ġplaisir": 8121,
      "Ġquickly": 8122,
      "ĠPhoto": 8123,
      "ĠMonopoly": 8124,
      "ĠBearded": 8125,
      "Ġgagner": 8126,
      "Ġleotard": 8127,
      "ĠElderly": 8128,
      "Ġdemois": 8129,
      "Ġinjured": 8130,
      "Ġbrother": 8131,
      "Ġenvironnement": 8132,
      "Ġolive": 8133,
      "Ġsecoue": 8134,
      "ĠCouple": 8135,
      "Ġhandrail": 8136,
      "Ġlobby": 8137,
      "obstacles": 8138,
      "ĠchorÃ©graphie": 8139,
      "ĠpÃ©rilleux": 8140,
      "ĠnÅĵud": 8141,
      "Ġpeignoir": 8142,
      "kswagen": 8143,
      "ĠSpectators": 8144,
      "ĠPedestrians": 8145,
      "exposition": 8146,
      "ah": 8147,
      "ahom": 8148,
      "aider": 8149,
      "bit": 8150,
      "bank": 8151,
      "fle": 8152,
      "fly": 8153,
      "hat": 8154,
      "hawk": 8155,
      "happy": 8156,
      "iors": 8157,
      "ikers": 8158,
      "lam": 8159,
      "lÃ©s": 8160,
      "lÃł": 8161,
      "mÃ©s": 8162,
      "most": 8163,
      "midi": 8164,
      "noon": 8165,
      "pre": 8166,
      "pro": 8167,
      "run": 8168,
      "rines": 8169,
      "tie": 8170,
      "uf": 8171,
      "vor": 8172,
      "war": 8173,
      "wear": 8174,
      "Ġici": 8175,
      "Ġuk": 8176,
      "inc": 8177,
      "ineux": 8178,
      "Ġdau": 8179,
      "Ġdive": 8180,
      "Ġsle": 8181,
      "Ġsoyeux": 8182,
      "unif": 8183,
      "Ġpow": 8184,
      "Ġpay": 8185,
      "Ġpend": 8186,
      "Ġporc": 8187,
      "Ġtendant": 8188,
      "Ġbell": 8189,
      "Ġbends": 8190,
      "Ġbaiser": 8191,
      "onial": 8192,
      "Ġcet": 8193,
      "Ġcout": 8194,
      "Ġconne": 8195,
      "Ġcache": 8196,
      "Ġunp": 8197,
      "Ġunlo": 8198,
      "Ġunhappy": 8199,
      "ouver": 8200,
      "Ġwash": 8201,
      "ision": 8202,
      "istre": 8203,
      "isney": 8204,
      "arcade": 8205,
      "Ġmoun": 8206,
      "Ġmut": 8207,
      "Ġmorning": 8208,
      "Ġfre": 8209,
      "Ġfier": 8210,
      "Ġfois": 8211,
      "Ġfoyer": 8212,
      "itÃ©e": 8213,
      "itif": 8214,
      "itation": 8215,
      "itive": 8216,
      "itoufl": 8217,
      "Ġgig": 8218,
      "ĠgÃ¢teaux": 8219,
      "Ã©glise": 8220,
      "Ġinstruction": 8221,
      "alcool": 8222,
      "ĠrÃ©s": 8223,
      "Ġrings": 8224,
      "Ġrifle": 8225,
      "atoes": 8226,
      "Ġos": 8227,
      "Ġox": 8228,
      "Ġovers": 8229,
      "Ġjack": 8230,
      "Ġjumped": 8231,
      "Ġangle": 8232,
      "Ġvus": 8233,
      "Ġvite": 8234,
      "ĠvÃ©g": 8235,
      "ĠvallÃ©e": 8236,
      "Ġmanuel": 8237,
      "ĠToy": 8238,
      "anda": 8239,
      "Ġstump": 8240,
      "Ġchand": 8241,
      "Ġchinese": 8242,
      "icap": 8243,
      "icaux": 8244,
      "Ġgras": 8245,
      "otion": 8246,
      "Ġreally": 8247,
      "ĠrevÃªtement": 8248,
      "chan": 8249,
      "chet": 8250,
      "Ġplu": 8251,
      "ĠDark": 8252,
      "ĠDisney": 8253,
      "raits": 8254,
      "Ġlever": 8255,
      "Ã¨ques": 8256,
      "Ġshaw": 8257,
      "Ġshiny": 8258,
      "Ġtooth": 8259,
      "onnant": 8260,
      "rid": 8261,
      "rire": 8262,
      "riques": 8263,
      "Ġestabl": 8264,
      "Ġpeer": 8265,
      "Ġmarm": 8266,
      "ooted": 8267,
      "aby": 8268,
      "Ãªmes": 8269,
      "Ġsees": 8270,
      "Ġsept": 8271,
      "Ġseagull": 8272,
      "illers": 8273,
      "image": 8274,
      "Ġquat": 8275,
      "Ġassemble": 8276,
      "Ġfranch": 8277,
      "tub": 8278,
      "Ġpratique": 8279,
      "ĠÃ©par": 8280,
      "ĠÃ©ject": 8281,
      "Ġfavor": 8282,
      "Ġeas": 8283,
      "Ġevery": 8284,
      "Ġarmes": 8285,
      "apor": 8286,
      "Ġtending": 8287,
      "Ġportraits": 8288,
      "ĠtrÃ©p": 8289,
      "Ġducks": 8290,
      "ifier": 8291,
      "Ġcouvrant": 8292,
      "ĠLou": 8293,
      "ĠLots": 8294,
      "Ġbrief": 8295,
      "Ġpourpre": 8296,
      "Ġsawing": 8297,
      "Ġpoing": 8298,
      "Ġhere": 8299,
      "iseur": 8300,
      "Ġphys": 8301,
      "Ã©lÃ¨": 8302,
      "Ġalmost": 8303,
      "ĠSn": 8304,
      "ĠSte": 8305,
      "Ġflash": 8306,
      "Ġbascule": 8307,
      "ĠMin": 8308,
      "Ġcolum": 8309,
      "Ġproche": 8310,
      "Ġproches": 8311,
      "Ġsnork": 8312,
      "Ġquiet": 8313,
      "Ġjumper": 8314,
      "ĠdÃ©rou": 8315,
      "oodles": 8316,
      "ution": 8317,
      "ĠdeuxiÃ¨me": 8318,
      "Ġcampe": 8319,
      "Ġcoff": 8320,
      "Ġaprons": 8321,
      "Ġriot": 8322,
      "Ġfromage": 8323,
      "Ġtail": 8324,
      "ĠFood": 8325,
      "ordre": 8326,
      "Ġskateurs": 8327,
      "ĠposÃ©s": 8328,
      "Ġbarric": 8329,
      "Ġbuilt": 8330,
      "Ġperles": 8331,
      "Ġteens": 8332,
      "Ġspark": 8333,
      "Ġsparr": 8334,
      "ĠBaby": 8335,
      "Ġvieilles": 8336,
      "Ġcanards": 8337,
      "Ġcannes": 8338,
      "Ġsunbat": 8339,
      "ĠdrÃ´le": 8340,
      "Ġsurfs": 8341,
      "Ġwaist": 8342,
      "Ġpatron": 8343,
      "Ġpatriot": 8344,
      "Ġbicycling": 8345,
      "Ġboul": 8346,
      "Ġsolo": 8347,
      "ĠrÃ©al": 8348,
      "Ġhelicopter": 8349,
      "Ġsaluant": 8350,
      "aises": 8351,
      "intures": 8352,
      "verse": 8353,
      "Ġpainter": 8354,
      "ĠPlay": 8355,
      "Ġvisibles": 8356,
      "Ġmoby": 8357,
      "Ġcah": 8358,
      "utiliser": 8359,
      "Ġserveur": 8360,
      "Ġserpent": 8361,
      "Ġcrates": 8362,
      "Ġdragging": 8363,
      "ĠrayÃ©es": 8364,
      "Ġdessert": 8365,
      "Ġveston": 8366,
      "ĠNike": 8367,
      "artifice": 8368,
      "Ġcowgirl": 8369,
      "ĠHuit": 8370,
      "ĠHockey": 8371,
      "Ġarmy": 8372,
      "obser": 8373,
      "obsc": 8374,
      "Ġpiercing": 8375,
      "Ġsteaks": 8376,
      "ishment": 8377,
      "ĠpastÃ¨ques": 8378,
      "boys": 8379,
      "Ġsoigne": 8380,
      "ĠplaquÃ©": 8381,
      "ĠEx": 8382,
      "ĠEight": 8383,
      "Ġpelot": 8384,
      "ĠcheminÃ©e": 8385,
      "ĠdÃ©bardeurs": 8386,
      "Ġessaye": 8387,
      "Ġceintures": 8388,
      "Ġmonosp": 8389,
      "Ġhills": 8390,
      "Ġcellphones": 8391,
      "Ġsorting": 8392,
      "Ġzoo": 8393,
      "Ġremplissant": 8394,
      "ĠRo": 8395,
      "Ġmechan": 8396,
      "Ġsnowboards": 8397,
      "Ġrassemblant": 8398,
      "Ġpathway": 8399,
      "Ġmatin": 8400,
      "Ġconcur": 8401,
      "ĠÃ©pouse": 8402,
      "ĠÃ©poux": 8403,
      "Ġfishes": 8404,
      "ĠbalanÃ§ant": 8405,
      "iquant": 8406,
      "Ġparticipants": 8407,
      "ĠferrÃ©es": 8408,
      "ĠbanniÃ¨re": 8409,
      "Ġphotographes": 8410,
      "ĠphotographiÃ©": 8411,
      "Ġafternoon": 8412,
      "Ġraincoat": 8413,
      "Ġtask": 8414,
      "Ġlancent": 8415,
      "Ġtranspar": 8416,
      "Ġtransporte": 8417,
      "oiseaux": 8418,
      "Ġfoliage": 8419,
      "Ġpeintre": 8420,
      "ashington": 8421,
      "ĠdÃ©filent": 8422,
      "Ġpencil": 8423,
      "Ġlocated": 8424,
      "Ġdiner": 8425,
      "Ġscenic": 8426,
      "Ġpads": 8427,
      "Ġtombent": 8428,
      "Ġbondit": 8429,
      "Ġbedroom": 8430,
      "Ġcouverts": 8431,
      "accro": 8432,
      "Ġcurieux": 8433,
      "Ġweight": 8434,
      "Ġdisplayed": 8435,
      "Ġjardinage": 8436,
      "Ġroulants": 8437,
      "Ġservir": 8438,
      "Åĵufs": 8439,
      "ĠStarb": 8440,
      "Ġcircular": 8441,
      "Ġcirculent": 8442,
      "ĠcalÃ¨che": 8443,
      "Ġfumer": 8444,
      "mÃ©rique": 8445,
      "Ġgazing": 8446,
      "Ġchercher": 8447,
      "Ġcherry": 8448,
      "ĠdÃ©corations": 8449,
      "ĠrÃ©parent": 8450,
      "Ġpinc": 8451,
      "Ġwrites": 8452,
      "ĠÃ©checs": 8453,
      "Ġ11": 8454,
      "amÃ©ricains": 8455,
      "Ġimmeubles": 8456,
      "Ġparasailing": 8457,
      "Ġhuman": 8458,
      "Ġparachutes": 8459,
      "Ġcomplet": 8460,
      "Ġsuiv": 8461,
      "Ġsuivant": 8462,
      "Ġberet": 8463,
      "Ġchinoises": 8464,
      "Ġdouche": 8465,
      "Ġwaterski": 8466,
      "Ġbathtub": 8467,
      "Ġeffectuent": 8468,
      "Ġrencont": 8469,
      "ĠocÃ©an": 8470,
      "Ġprim": 8471,
      "Ġprix": 8472,
      "Ġcheckers": 8473,
      "Ġclouds": 8474,
      "Ġdecorations": 8475,
      "Ġgesturing": 8476,
      "Ġpresenting": 8477,
      "Ġcaucasian": 8478,
      "Ġnappe": 8479,
      "Ġmanifestant": 8480,
      "ĠSmiling": 8481,
      "Ġautomne": 8482,
      "ĠimprimÃ©": 8483,
      "ĠagenouillÃ©s": 8484,
      "Ġnaviguant": 8485,
      "Ġtendus": 8486,
      "Ġhorizon": 8487,
      "Ġmaquille": 8488,
      "Ġoperates": 8489,
      "ĠmÃ©dical": 8490,
      "Ġheavily": 8491,
      "Ġcontaining": 8492,
      "Ġraser": 8493,
      "ĠrasÃ©": 8494,
      "Ġrasant": 8495,
      "Ġsavourent": 8496,
      "Ġjoli": 8497,
      "Ġbooths": 8498,
      "Ġtags": 8499,
      "Ġfeaturing": 8500,
      "ĠlÃ©vrier": 8501,
      "Ġcleaner": 8502,
      "ĠÅĵuvres": 8503,
      "Ġpropri": 8504,
      "Ġsyst": 8505,
      "Ġbouncing": 8506,
      "ĠsÃ©cher": 8507,
      "cteurs": 8508,
      "Ġpunk": 8509,
      "Ġpunching": 8510,
      "Ġsurveillent": 8511,
      "Ġgradu": 8512,
      "Ġbrushes": 8513,
      "Ġstrolls": 8514,
      "Ġmoustachu": 8515,
      "iously": 8516,
      "Ġmarchandise": 8517,
      "Ġaffaires": 8518,
      "Ġprincip": 8519,
      "Ġdurant": 8520,
      "registre": 8521,
      "Ġrespect": 8522,
      "Ġtiled": 8523,
      "Ġgrabs": 8524,
      "Ġgrabbing": 8525,
      "ĠShop": 8526,
      "Ġstacked": 8527,
      "Ġdesigns": 8528,
      "ĠsituÃ©": 8529,
      "Ġpourchassant": 8530,
      "Ġbreakdancing": 8531,
      "Ġtexto": 8532,
      "ĠintÃ©ress": 8533,
      "Ġchopsticks": 8534,
      "Ġcommande": 8535,
      "Ġawait": 8536,
      "Ġbegins": 8537,
      "ĠdÃ©coupant": 8538,
      "Ġrollerblades": 8539,
      "Ġverdoyant": 8540,
      "Ġverdoyante": 8541,
      "Ġdumpster": 8542,
      "Ġjogs": 8543,
      "Ġstructures": 8544,
      "Ġtripod": 8545,
      "Ġmuzzle": 8546,
      "ĠflÃ¢nant": 8547,
      "Ġadjusts": 8548,
      "Ġpattern": 8549,
      "Ġconcentr": 8550,
      "ĠvÃ©rifie": 8551,
      "Ġinterview": 8552,
      "Ġimpliquant": 8553,
      "Ġemmitoufl": 8554,
      "Ġchocolat": 8555,
      "Ġchocolate": 8556,
      "ĠSkate": 8557,
      "Ġadorable": 8558,
      "Ġindustrie": 8559,
      "Ġpumpkin": 8560,
      "ĠUSA": 8561,
      "Ġpeeking": 8562,
      "Ġagricole": 8563,
      "Ġdistributeur": 8564,
      "Ġicy": 8565,
      "ĠexÃ©cutent": 8566,
      "ĠexpÃ©rience": 8567,
      "Ġgreyhound": 8568,
      "Ġsqueez": 8569,
      "Ġmauv": 8570,
      "ĠAdults": 8571,
      "ĠÃ©ventail": 8572,
      "Ġcockpit": 8573,
      "Ġcasserole": 8574,
      "itude": 8575,
      "ĠchÃ¨vre": 8576,
      "Ġsniffing": 8577,
      "Ġperruque": 8578,
      "Ġbutterfly": 8579,
      "Ġkickboxing": 8580,
      "Ġenthusiast": 8581,
      "Ġpercussion": 8582,
      "klahom": 8583,
      "ĠCanadian": 8584,
      "ĠentrepÃ´t": 8585,
      "ĠtachetÃ©": 8586,
      "Ġmexic": 8587,
      "ĠSpeedo": 8588,
      "Ġbelongings": 8589,
      "Ġcorpulente": 8590,
      "craft": 8591,
      "ĠhawaÃ¯": 8592,
      "Ġrecording": 8593,
      "Ġtrombone": 8594,
      "Ġcaricature": 8595,
      "Ġbrouillard": 8596,
      "striped": 8597,
      "ĠBicycl": 8598,
      "ĠBritish": 8599,
      "ĠvÃ©gÃ©t": 8600,
      "Ġsparring": 8601,
      "obscuritÃ©": 8602,
      "Ġmonospace": 8603,
      "ĠStarbucks": 8604,
      "klahoma": 8605,
      "Aid": 8606,
      "AmÃ©rique": 8607,
      "MC": 8608,
      "bon": 8609,
      "bus": 8610,
      "brant": 8611,
      "cur": 8612,
      "dra": 8613,
      "dients": 8614,
      "fic": 8615,
      "gas": 8616,
      "green": 8617,
      "ii": 8618,
      "ik": 8619,
      "iÃ©s": 8620,
      "iemment": 8621,
      "liers": 8622,
      "lins": 8623,
      "lights": 8624,
      "mud": 8625,
      "mock": 8626,
      "neux": 8627,
      "oque": 8628,
      "oquoise": 8629,
      "pong": 8630,
      "prÃ¨s": 8631,
      "sized": 8632,
      "tres": 8633,
      "tender": 8634,
      "uing": 8635,
      "uge": 8636,
      "vient": 8637,
      "vette": 8638,
      "Ġ.": 8639,
      "Ġour": 8640,
      "Ġid": 8641,
      "Ġomb": 8642,
      "Ġembrassant": 8643,
      "ĠÅĵil": 8644,
      "Ġaffe": 8645,
      "inue": 8646,
      "anion": 8647,
      "anges": 8648,
      "Ġdam": 8649,
      "Ġdunes": 8650,
      "Ġsay": 8651,
      "Ġske": 8652,
      "Ġsigning": 8653,
      "ences": 8654,
      "Ġpans": 8655,
      "Ġpops": 8656,
      "Ġpurses": 8657,
      "ĠpÃ©n": 8658,
      "Ġtum": 8659,
      "ĠtÃ¢che": 8660,
      "Ġbump": 8661,
      "ĠbÃ»": 8662,
      "erts": 8663,
      "Ġcuit": 8664,
      "Ġcrosse": 8665,
      "Ġcycling": 8666,
      "Ġcadeaux": 8667,
      "leading": 8668,
      "Ġwo": 8669,
      "Ġware": 8670,
      "isk": 8671,
      "ares": 8672,
      "argile": 8673,
      "Ġmure": 8674,
      "Ġmiss": 8675,
      "ĠmÃ»": 8676,
      "Ġmulti": 8677,
      "ĠmÃ¢che": 8678,
      "Ġmuch": 8679,
      "Ġfeux": 8680,
      "Ġfine": 8681,
      "Ġfind": 8682,
      "itaires": 8683,
      "Ġho": 8684,
      "Ġhen": 8685,
      "Ġhad": 8686,
      "Ġlim": 8687,
      "Ġlips": 8688,
      "oms": 8689,
      "omac": 8690,
      "ĠAl": 8691,
      "Ġgel": 8692,
      "Ã©me": 8693,
      "ety": 8694,
      "eter": 8695,
      "heure": 8696,
      "Ġinsc": 8697,
      "urant": 8698,
      "urale": 8699,
      "irÃ©": 8700,
      "ĠrÃ©t": 8701,
      "Ġrurale": 8702,
      "ĠenlÃ¨ve": 8703,
      "attent": 8704,
      "atiques": 8705,
      "Ġow": 8706,
      "Ġoeu": 8707,
      "Ġhomem": 8708,
      "Ġongles": 8709,
      "Ġvint": 8710,
      "Ġvari": 8711,
      "rov": 8712,
      "roits": 8713,
      "ĠsurvÃªtement": 8714,
      "emor": 8715,
      "ĠmaniÃ¨re": 8716,
      "ĠTo": 8717,
      "ĠTen": 8718,
      "aus": 8719,
      "Ġstuck": 8720,
      "Ġstocking": 8721,
      "Ġchis": 8722,
      "Ġchic": 8723,
      "Ġlabe": 8724,
      "Ġlavent": 8725,
      "Ġnun": 8726,
      "Ġnous": 8727,
      "Ġnail": 8728,
      "Ġnurses": 8729,
      "icile": 8730,
      "ickey": 8731,
      "ourant": 8732,
      "delÃł": 8733,
      "cht": 8734,
      "chÃ©e": 8735,
      "chette": 8736,
      "Ġplain": 8737,
      "Ġplume": 8738,
      "quent": 8739,
      "oper": 8740,
      "opÃ©ration": 8741,
      "Ã¨les": 8742,
      "Ġshag": 8743,
      "Ġshirted": 8744,
      "kings": 8745,
      "Ġtoo": 8746,
      "ancer": 8747,
      "ries": 8748,
      "rial": 8749,
      "right": 8750,
      "Ġyear": 8751,
      "iteau": 8752,
      "Ġpeers": 8753,
      "ĠmarÃ©c": 8754,
      "Ġmarble": 8755,
      "ountry": 8756,
      "Ġtrafic": 8757,
      "illÃ©es": 8758,
      "illÃ¨res": 8759,
      "Ġquilles": 8760,
      "oires": 8761,
      "Ġroc": 8762,
      "assÃ©e": 8763,
      "vering": 8764,
      "osse": 8765,
      "oscope": 8766,
      "agle": 8767,
      "agnÃ©": 8768,
      "ĠÃ©mer": 8769,
      "neige": 8770,
      "Ġbeads": 8771,
      "Ġbeiges": 8772,
      "Ġarrow": 8773,
      "apes": 8774,
      "Ġtruc": 8775,
      "ctur": 8776,
      "cheur": 8777,
      "Ġcoud": 8778,
      "Ġorig": 8779,
      "ĠornÃ©": 8780,
      "uperman": 8781,
      "Ġlooked": 8782,
      "ĠLat": 8783,
      "Ġskies": 8784,
      "Ġskiant": 8785,
      "Ġskull": 8786,
      "Ġskills": 8787,
      "Ġbrind": 8788,
      "Ġforested": 8789,
      "stance": 8790,
      "Ġmarchand": 8791,
      "Ġsmas": 8792,
      "Ġbuild": 8793,
      "ĠmaÃ®": 8794,
      "ĠSun": 8795,
      "ĠSpan": 8796,
      "ĠPark": 8797,
      "Ġsombr": 8798,
      "Ġconvention": 8799,
      "Ġcompl": 8800,
      "Ġscrap": 8801,
      "ĠMac": 8802,
      "ĠMother": 8803,
      "ĠMouse": 8804,
      "ĠMickey": 8805,
      "ĠThey": 8806,
      "ĠComp": 8807,
      "Ġupset": 8808,
      "ĠdÃ©monstr": 8809,
      "Ġbib": 8810,
      "ĠbiÃ¨res": 8811,
      "inder": 8812,
      "Ġcamps": 8813,
      "Ġattache": 8814,
      "Ġcash": 8815,
      "Ġriz": 8816,
      "issants": 8817,
      "Ġtailler": 8818,
      "ĠFis": 8819,
      "Ġhandbag": 8820,
      "Ġhandicap": 8821,
      "ĠposÃ©e": 8822,
      "ĠposÃ©es": 8823,
      "Ġbartender": 8824,
      "Ġtrot": 8825,
      "Ġaccep": 8826,
      "Ã©tire": 8827,
      "Ġspar": 8828,
      "Ġspins": 8829,
      "ĠBas": 8830,
      "ĠBus": 8831,
      "ĠBig": 8832,
      "ĠBase": 8833,
      "ĠBost": 8834,
      "ĠÃ©cart": 8835,
      "Ġpolos": 8836,
      "Ġouverts": 8837,
      "Ġcanad": 8838,
      "Ġcanoes": 8839,
      "Ġcaniche": 8840,
      "Ġpassion": 8841,
      "Ġpassager": 8842,
      "Ġbrides": 8843,
      "Ġamount": 8844,
      "Ġspeeding": 8845,
      "Ġspeaker": 8846,
      "Ġcompris": 8847,
      "Ġcompany": 8848,
      "Ġcompanion": 8849,
      "Ġguitares": 8850,
      "Ġmurale": 8851,
      "Ġmurky": 8852,
      "Ġpatrons": 8853,
      "Ġboucher": 8854,
      "Ġcontrer": 8855,
      "Ġcontenu": 8856,
      "Ġcameraman": 8857,
      "Ġvibrant": 8858,
      "ĠrÃ©d": 8859,
      "Ġraide": 8860,
      "ĠAsians": 8861,
      "Ġmidst": 8862,
      "Ġsalue": 8863,
      "Ġsaluent": 8864,
      "Ġbords": 8865,
      "ĠGreen": 8866,
      "Ġhabits": 8867,
      "Ġvisite": 8868,
      "ĠvisiÃ¨re": 8869,
      "Ġunderground": 8870,
      "Ġmohawk": 8871,
      "Ġbabies": 8872,
      "Ġentrer": 8873,
      "Ġsignes": 8874,
      "Ġsinge": 8875,
      "ĠYellow": 8876,
      "ĠYama": 8877,
      "appuyant": 8878,
      "Ġcave": 8879,
      "Ġwaiter": 8880,
      "Ġcollation": 8881,
      "Ġshoppers": 8882,
      "Ġimport": 8883,
      "Ġmontagneux": 8884,
      "Ġnourrit": 8885,
      "Ġcrashing": 8886,
      "Ġdraped": 8887,
      "Ġdraws": 8888,
      "Ġdarkened": 8889,
      "Ã©crire": 8890,
      "Ġchamps": 8891,
      "ĠÃ©troit": 8892,
      "ĠChin": 8893,
      "ĠChine": 8894,
      "Ġdaytime": 8895,
      "ĠaccÃ©l": 8896,
      "Ġdessins": 8897,
      "Ġsouriants": 8898,
      "ĠNum": 8899,
      "ĠNative": 8900,
      "artisan": 8901,
      "Ġload": 8902,
      "Ġloaded": 8903,
      "ĠHar": 8904,
      "Ġtreadm": 8905,
      "Ġroll": 8906,
      "Ġemball": 8907,
      "Ġplaquer": 8908,
      "Ġelabor": 8909,
      "Ġstatues": 8910,
      "Ġnumerous": 8911,
      "igned": 8912,
      "Ġtabliers": 8913,
      "Ġshower": 8914,
      "ĠdÃ©barr": 8915,
      "Ġessayent": 8916,
      "Ġindig": 8917,
      "Ġindiens": 8918,
      "ĠJungle": 8919,
      "ĠJapon": 8920,
      "Ġmasks": 8921,
      "Ġjuges": 8922,
      "cloth": 8923,
      "ĠVi": 8924,
      "ĠVend": 8925,
      "ĠVarious": 8926,
      "Ġmeas": 8927,
      "Ġtouriste": 8928,
      "Ġpoussent": 8929,
      "Ġtriangle": 8930,
      "aiian": 8931,
      "itchenAid": 8932,
      "Ġboxe": 8933,
      "Ġentreprise": 8934,
      "ĠÃ©pais": 8935,
      "ĠDeere": 8936,
      "Ġsouven": 8937,
      "Ġendroits": 8938,
      "Ġofficiel": 8939,
      "Ġofficielle": 8940,
      "Ġsubstance": 8941,
      "Ġhardwood": 8942,
      "Ġclassic": 8943,
      "Ġtired": 8944,
      "iquet": 8945,
      "Ġvitres": 8946,
      "Ġturkey": 8947,
      "Ġbanners": 8948,
      "Ġcoupent": 8949,
      "Ġsprin": 8950,
      "Ġsprays": 8951,
      "ĠappelÃ©": 8952,
      "Ġphotographier": 8953,
      "Ġdirecting": 8954,
      "ĠKitchenAid": 8955,
      "Ġinteract": 8956,
      "Ġgrimpent": 8957,
      "Ġplantant": 8958,
      "Ġfountains": 8959,
      "Ġtransit": 8960,
      "ĠgenouillÃ¨res": 8961,
      "Ġvending": 8962,
      "Ġcarrier": 8963,
      "Ġpotato": 8964,
      "Ġdoesn": 8965,
      "Ġgardening": 8966,
      "rÃ©dients": 8967,
      "Ġskyd": 8968,
      "Ġmoyenne": 8969,
      "Ġkisses": 8970,
      "Ġcampfire": 8971,
      "Ġcuisinent": 8972,
      "Ġnoix": 8973,
      "ĠIndia": 8974,
      "Ġpellete": 8975,
      "Ġfilmer": 8976,
      "Ġfilming": 8977,
      "Ġtournament": 8978,
      "Ġsplashed": 8979,
      "Ġcheerleading": 8980,
      "Ġpaintball": 8981,
      "Ġproduct": 8982,
      "Ġservices": 8983,
      "Ġcalmes": 8984,
      "Ġplongeurs": 8985,
      "ĠgazonnÃ©": 8986,
      "Ġcherchent": 8987,
      "Ġrapide": 8988,
      "ĠdÃ©tendant": 8989,
      "Ġlapin": 8990,
      "Ġcatcheur": 8991,
      "ĠConcert": 8992,
      "Ġ12": 8993,
      "Ġdigital": 8994,
      "Ġhamac": 8995,
      "Ġhammock": 8996,
      "Ġcerceaux": 8997,
      "Ġstrolling": 8998,
      "Ġburied": 8999,
      "Ġsuite": 9000,
      "Ġbermud": 9001,
      "Ġcoiffeur": 9002,
      "Ġpalmier": 9003,
      "Ġtomates": 9004,
      "iderman": 9005,
      "Ġpatinent": 9006,
      "ĠaccordÃ©on": 9007,
      "ĠcÃ¢ble": 9008,
      "Ġgesture": 9009,
      "Ġlaboratory": 9010,
      "Ġbarefooted": 9011,
      "Ġdirig": 9012,
      "Ġnapping": 9013,
      "ĠÃ©trang": 9014,
      "Ġmessage": 9015,
      "Ġmessieurs": 9016,
      "ĠmuseliÃ¨re": 9017,
      "Ġoreiller": 9018,
      "Ġoreillers": 9019,
      "Ġcardigan": 9020,
      "Ġnavigates": 9021,
      "Ġsledding": 9022,
      "Ġexplos": 9023,
      "ĠdÃ©guisÃ©e": 9024,
      "Ġinconn": 9025,
      "Ġprojector": 9026,
      "ĠappuyÃ©e": 9027,
      "Ġconductor": 9028,
      "ĠÃ©claboussant": 9029,
      "Ġsavon": 9030,
      "Ġpagayant": 9031,
      "Ġtackled": 9032,
      "Ġenseign": 9033,
      "Ġinspectant": 9034,
      "Ġacrobaties": 9035,
      "Ġstretches": 9036,
      "Ġballerines": 9037,
      "Ġstringed": 9038,
      "Ġhammering": 9039,
      "Ġatteint": 9040,
      "ĠtraÃ®nant": 9041,
      "ĠdÃ©charge": 9042,
      "ĠcroisÃ©es": 9043,
      "Ġkilts": 9044,
      "Ġadmirant": 9045,
      "Ġpackage": 9046,
      "Ġpacked": 9047,
      "Ġmascara": 9048,
      "Ġbambou": 9049,
      "Ġlively": 9050,
      "urgence": 9051,
      "Ġethn": 9052,
      "Ġethnique": 9053,
      "ĠDogs": 9054,
      "Ġspotlight": 9055,
      "Ġlutte": 9056,
      "Ġluttent": 9057,
      "Ġbrillantes": 9058,
      "ĠretournÃ©": 9059,
      "maids": 9060,
      "Ġpizzer": 9061,
      "Ġcookies": 9062,
      "ĠATM": 9063,
      "Ġsumo": 9064,
      "Ġfilmant": 9065,
      "Ġcries": 9066,
      "Ġfortune": 9067,
      "Ġbloquer": 9068,
      "ĠfrisÃ©": 9069,
      "Ġcreusent": 9070,
      "Ġreligious": 9071,
      "Ġpirates": 9072,
      "Ġwasher": 9073,
      "ĠsituÃ©e": 9074,
      "ĠpourchassÃ©": 9075,
      "ĠaccompagnÃ©": 9076,
      "Ġbougie": 9077,
[...]
